{
  "version": "1.0",
  "truncation": null,
  "padding": null,
  "added_tokens": [
    {
      "id": 0,
      "content": "<pad>",
      "single_word": false,
      "lstrip": false,
      "rstrip": false,
      "normalized": false,
      "special": true
    },
    {
      "id": 1,
      "content": "<unk>",
      "single_word": false,
      "lstrip": false,
      "rstrip": false,
      "normalized": false,
      "special": true
    },
    {
      "id": 2,
      "content": "<bos>",
      "single_word": false,
      "lstrip": false,
      "rstrip": false,
      "normalized": false,
      "special": true
    },
    {
      "id": 3,
      "content": "<eos>",
      "single_word": false,
      "lstrip": false,
      "rstrip": false,
      "normalized": false,
      "special": true
    }
  ],
  "normalizer": null,
  "pre_tokenizer": {
    "type": "ByteLevel",
    "add_prefix_space": false,
    "trim_offsets": true,
    "use_regex": true
  },
  "post_processor": null,
  "decoder": {
    "type": "ByteLevel",
    "add_prefix_space": true,
    "trim_offsets": true,
    "use_regex": true
  },
  "model": {
    "type": "BPE",
    "dropout": null,
    "unk_token": "<unk>",
    "continuing_subword_prefix": null,
    "end_of_word_suffix": null,
    "fuse_unk": false,
    "byte_fallback": false,
    "ignore_merges": false,
    "vocab": {
      "<pad>": 0,
      "<unk>": 1,
      "<bos>": 2,
      "<eos>": 3,
      "!": 4,
      "\"": 5,
      "$": 6,
      "&": 7,
      "'": 8,
      "(": 9,
      ")": 10,
      "*": 11,
      "+": 12,
      ",": 13,
      "-": 14,
      ".": 15,
      "/": 16,
      "0": 17,
      "1": 18,
      "2": 19,
      "3": 20,
      "4": 21,
      "5": 22,
      "6": 23,
      "7": 24,
      "8": 25,
      "9": 26,
      ":": 27,
      ";": 28,
      "?": 29,
      "A": 30,
      "B": 31,
      "C": 32,
      "D": 33,
      "E": 34,
      "F": 35,
      "G": 36,
      "H": 37,
      "I": 38,
      "J": 39,
      "K": 40,
      "L": 41,
      "M": 42,
      "N": 43,
      "O": 44,
      "P": 45,
      "Q": 46,
      "R": 47,
      "S": 48,
      "T": 49,
      "U": 50,
      "V": 51,
      "W": 52,
      "X": 53,
      "Y": 54,
      "Z": 55,
      "a": 56,
      "b": 57,
      "c": 58,
      "d": 59,
      "e": 60,
      "f": 61,
      "g": 62,
      "h": 63,
      "i": 64,
      "j": 65,
      "k": 66,
      "l": 67,
      "m": 68,
      "n": 69,
      "o": 70,
      "p": 71,
      "q": 72,
      "r": 73,
      "s": 74,
      "t": 75,
      "u": 76,
      "v": 77,
      "w": 78,
      "x": 79,
      "y": 80,
      "z": 81,
      "¡": 82,
      "¢": 83,
      "¦": 84,
      "©": 85,
      "«": 86,
      "¬": 87,
      "±": 88,
      "³": 89,
      "»": 90,
      "Â": 91,
      "Ã": 92,
      "Å": 93,
      "Ë": 94,
      "â": 95,
      "Ċ": 96,
      "Ġ": 97,
      "Ģ": 98,
      "Ĥ": 99,
      "ĥ": 100,
      "Ħ": 101,
      "ĵ": 102,
      "ľ": 103,
      "Ŀ": 104,
      "ł": 105,
      "he": 106,
      "Ġt": 107,
      "Ġa": 108,
      "Ġs": 109,
      "Ġw": 110,
      "nd": 111,
      "Ġthe": 112,
      "ed": 113,
      "Ġand": 114,
      "Ġto": 115,
      "Ġb": 116,
      "in": 117,
      "Ġh": 118,
      "Ġwa": 119,
      "re": 120,
      "Ġf": 121,
      "ou": 122,
      "it": 123,
      "Ġl": 124,
      "Ġc": 125,
      "Ġd": 126,
      "er": 127,
      "Ġhe": 128,
      "Ġm": 129,
      "Ġp": 130,
      "Ġwas": 131,
      "ĠT": 132,
      "om": 133,
      "Ġo": 134,
      "ay": 135,
      "is": 136,
      "ar": 137,
      "il": 138,
      "ing": 139,
      "Ġg": 140,
      "id": 141,
      "at": 142,
      "en": 143,
      "Ġn": 144,
      "Ġsa": 145,
      "Ġha": 146,
      "ĠS": 147,
      "ĠThe": 148,
      "an": 149,
      "im": 150,
      "or": 151,
      "on": 152,
      "Ġit": 153,
      "Ġth": 154,
      "ll": 155,
      "le": 156,
      "ĠH": 157,
      "Ġher": 158,
      "et": 159,
      "ot": 160,
      "ir": 161,
      "ĠShe": 162,
      "ĠHe": 163,
      "es": 164,
      "Ġin": 165,
      "ver": 166,
      "ow": 167,
      "ut": 168,
      "ĠThey": 169,
      "ck": 170,
      "Ġy": 171,
      "Ġe": 172,
      "Ġu": 173,
      "ily": 174,
      "ld": 175,
      "oo": 176,
      "Ġsaid": 177,
      "ig": 178,
      "Ġ\"": 179,
      "am": 180,
      "Ġr": 181,
      "Ġbe": 182,
      "ĠI": 183,
      "Ġst": 184,
      "Lily": 185,
      "ith": 186,
      "ke": 187,
      "ce": 188,
      "pp": 189,
      "ve": 190,
      "Ġwith": 191,
      "Ġshe": 192,
      "On": 193,
      "Ġon": 194,
      "Ġyou": 195,
      "ri": 196,
      "ked": 197,
      "Ġpl": 198,
      "Ġof": 199,
      "Ġhis": 200,
      "nt": 201,
      "Ġso": 202,
      "ad": 203,
      "Ġday": 204,
      "very": 205,
      "Ġthat": 206,
      "ĠLily": 207,
      "Ġplay": 208,
      "Ġup": 209,
      "Ġhad": 210,
      "Ġwe": 211,
      "Ġthey": 212,
      "Ġmom": 213,
      "st": 214,
      "ĠB": 215,
      "el": 216,
      "Ġfor": 217,
      "un": 218,
      "my": 219,
      "'s": 220,
      "ould": 221,
      "Ġli": 222,
      "The": 223,
      "Ġhapp": 224,
      "ent": 225,
      "ch": 226,
      "Ġwant": 227,
      "itt": 228,
      "her": 229,
      "Ġsh": 230,
      "out": 231,
      "Ġdo": 232,
      "end": 233,
      "Ġnot": 234,
      "all": 235,
      "ome": 236,
      "Ġvery": 237,
      "se": 238,
      "ound": 239,
      "ly": 240,
      "ime": 241,
      "Ġk": 242,
      "ittle": 243,
      "Ġwh": 244,
      "Ġtime": 245,
      "Ġlittle": 246,
      "Ġthere": 247,
      "Ġbig": 248,
      "Ġne": 249,
      "Ġis": 250,
      "Ġhappy": 251,
      "ht": 252,
      "al": 253,
      "ĠM": 254,
      "Ġsm": 255,
      "Ġre": 256,
      "riend": 257,
      "Ġfriend": 258,
      "ĠIt": 259,
      "Ġsaw": 260,
      "Ġbut": 261,
      ".\"": 262,
      "ra": 263,
      "Ġan": 264,
      "ĠĊ": 265,
      "ry": 266,
      "Ġas": 267,
      "ack": 268,
      "One": 269,
      "ide": 270,
      "ake": 271,
      "ved": 272,
      "!\"": 273,
      "ug": 274,
      "'t": 275,
      "ter": 276,
      "Ġlo": 277,
      "Ġloo": 278,
      "Once": 279,
      "Ġwere": 280,
      "ĠTim": 281,
      "Ġse": 282,
      "ore": 283,
      "Ġtoo": 284,
      "Ġbo": 285,
      "Ġhim": 286,
      "Ġgo": 287,
      "Ġare": 288,
      "ec": 289,
      "ill": 290,
      "Ġwanted": 291,
      "Ġupon": 292,
      "Ġthem": 293,
      "irl": 294,
      "ard": 295,
      "Ġj": 296,
      "Ġgirl": 297,
      "Ġout": 298,
      "Ġat": 299,
      "Ġtheir": 300,
      "ind": 301,
      "ur": 302,
      "fu": 303,
      "way": 304,
      "Ġdid": 305,
      "ĠA": 306,
      "Ġsp": 307,
      "hen": 308,
      "Ġsmil": 309,
      "Ġcould": 310,
      "Ġhave": 311,
      "ain": 312,
      "Ġwent": 313,
      "Ġnam": 314,
      "ĠBen": 315,
      "hed": 316,
      "art": 317,
      "Ġcan": 318,
      "lp": 319,
      "rom": 320,
      "ic": 321,
      "Ġex": 322,
      "round": 323,
      "Ġfriends": 324,
      "?\"": 325,
      "Ġhelp": 326,
      "ood": 327,
      "ful": 328,
      "Ġkn": 329,
      "ĠJ": 330,
      "Ġall": 331,
      "hing": 332,
      "ight": 333,
      "um": 334,
      "ark": 335,
      "Ġfun": 336,
      "Ġsay": 337,
      "Ġback": 338,
      "one": 339,
      "You": 340,
      "Ġnamed": 341,
      "are": 342,
      "Ġcl": 343,
      "ĠTom": 344,
      "Ġno": 345,
      "Ġle": 346,
      "Ġloved": 347,
      "op": 348,
      "elt": 349,
      "oug": 350,
      "ĠOne": 351,
      "Ġsc": 352,
      "Ġtoy": 353,
      "Ġfelt": 354,
      "ĠTimmy": 355,
      "Ġsmiled": 356,
      "Ġal": 357,
      "Ġasked": 358,
      "Ġlike": 359,
      "side": 360,
      "ick": 361,
      "Ġlooked": 362,
      "Ġfe": 363,
      "Ġsee": 364,
      "Ġman": 365,
      "ame": 366,
      "Ġro": 367,
      "Ġbir": 368,
      "get": 369,
      "Ġme": 370,
      "ĠW": 371,
      "Ġaround": 372,
      "Ġsome": 373,
      "ure": 374,
      "Ġbr": 375,
      "omet": 376,
      "Ġboy": 377,
      "Ġbird": 378,
      "ong": 379,
      "ice": 380,
      "Ġwould": 381,
      "as": 382,
      "Ġstart": 383,
      "Ġwor": 384,
      "Ġtre": 385,
      ",\"": 386,
      "gether": 387,
      "dd": 388,
      "Ġag": 389,
      "ings": 390,
      "ade": 391,
      "Ġsomet": 392,
      "Ġmake": 393,
      "ag": 394,
      "Ġfa": 395,
      "ĠBut": 396,
      "own": 397,
      "Ġwhat": 398,
      "ĠYou": 399,
      "king": 400,
      "Ġtogether": 401,
      "Ġaway": 402,
      "Ġsays": 403,
      "Ġran": 404,
      "oud": 405,
      "Ġstarted": 406,
      "ared": 407,
      "Ġpark": 408,
      "Ġmade": 409,
      "Ã¢": 410,
      "âĤ": 411,
      "âĤ¬": 412,
      "if": 413,
      "ie": 414,
      "Ġco": 415,
      "Ġsad": 416,
      "Ġput": 417,
      "Ġot": 418,
      "Ġsomething": 419,
      "Ġnew": 420,
      "Ġcar": 421,
      "ited": 422,
      "Ġother": 423,
      "ell": 424,
      "Ġpr": 425,
      "Ġfrom": 426,
      "Ġagain": 427,
      "ble": 428,
      "Ġhug": 429,
      "Ġgood": 430,
      "Ġhome": 431,
      "ook": 432,
      "Ġla": 433,
      "Ġfl": 434,
      "Ġmu": 435,
      "Ġexc": 436,
      "Ġwhen": 437,
      "ĠL": 438,
      "ried": 439,
      "Ġfound": 440,
      "est": 441,
      "ue": 442,
      "Ġwho": 443,
      "ss": 444,
      "ep": 445,
      "ach": 446,
      "ought": 447,
      "hat": 448,
      "pped": 449,
      "Ġplaying": 450,
      "Ġthen": 451,
      "Ġch": 452,
      "Ġdec": 453,
      "Ġsw": 454,
      "Ġwal": 455,
      "Ġget": 456,
      "ous": 457,
      "uck": 458,
      "Ġthings": 459,
      "nn": 460,
      "pl": 461,
      "Ġbl": 462,
      "Ġgot": 463,
      "ally": 464,
      "ro": 465,
      "Ġliked": 466,
      "Ġdog": 467,
      "ave": 468,
      "ĠE": 469,
      "Ġexcited": 470,
      "Ġevery": 471,
      "ax": 472,
      "Ġyour": 473,
      "Ġcame": 474,
      "Ġbec": 475,
      "Ġdecid": 476,
      "Ġdown": 477,
      "Ġdecided": 478,
      "Ġfind": 479,
      "ouse": 480,
      "Ġcare": 481,
      "Ġdad": 482,
      "ust": 483,
      "ny": 484,
      "ĠD": 485,
      "ist": 486,
      "Ġscared": 487,
      "Ġv": 488,
      "ara": 489,
      "Ġfeel": 490,
      "They": 491,
      "Ġone": 492,
      "Ġab": 493,
      "ĠMom": 494,
      "Ġthan": 495,
      "Ġtree": 496,
      "Ġta": 497,
      "Ġmy": 498,
      "nna": 499,
      "Ġwill": 500,
      "qu": 501,
      "our": 502,
      "udd": 503,
      "Ġtoys": 504,
      "arn": 505,
      "us": 506,
      "ways": 507,
      "Ġball": 508,
      "Ġtook": 509,
      "ĠF": 510,
      "ers": 511,
      "Ġdidn": 512,
      "Ġpo": 513,
      "Ġabout": 514,
      "Ġgra": 515,
      "Ġalways": 516,
      "ess": 517,
      "Ġlook": 518,
      "nder": 519,
      "Ġthought": 520,
      "ant": 521,
      "ite": 522,
      "Ġlot": 523,
      "Ġkne": 524,
      "Ġke": 525,
      "fe": 526,
      "Ġmommy": 527,
      "ise": 528,
      "Ġoutside": 529,
      "ap": 530,
      "ged": 531,
      "Ġmore": 532,
      "ret": 533,
      "Ġknow": 534,
      "Ġlearn": 535,
      "bb": 536,
      "ched": 537,
      "Ġho": 538,
      "ened": 539,
      "Ġcat": 540,
      "Ġint": 541,
      "ĠMax": 542,
      "Ġlaug": 543,
      "eci": 544,
      "ĠSam": 545,
      "Ġtake": 546,
      "Ġold": 547,
      "ia": 548,
      "Ġsor": 549,
      "fter": 550,
      "Ġhow": 551,
      "Ġany": 552,
      "Ġknew": 553,
      "ma": 554,
      "Ġpe": 555,
      "ive": 556,
      "Ġtr": 557,
      "ecial": 558,
      "Ġspecial": 559,
      "udden": 560,
      "au": 561,
      "Ġshow": 562,
      "Ġsl": 563,
      "Ġhouse": 564,
      "Ġsorry": 565,
      "uddenly": 566,
      "But": 567,
      "Ġmuch": 568,
      "Ġrun": 569,
      "and": 570,
      "ish": 571,
      "ank": 572,
      "ven": 573,
      "Ġsun": 574,
      "Ġtold": 575,
      "Ġor": 576,
      "Ġmo": 577,
      "Ġtw": 578,
      "Ġop": 579,
      "ink": 580,
      "Ġplayed": 581,
      "Ġhand": 582,
      "Ġsk": 583,
      "Ġinto": 584,
      "Ġwater": 585,
      "Ġtried": 586,
      "ty": 587,
      "Ġgave": 588,
      "Ġclo": 589,
      "Ġproud": 590,
      "Ġeat": 591,
      "Ġinside": 592,
      "ĠWe": 593,
      "ause": 594,
      "ate": 595,
      "other": 596,
      "Ġroom": 597,
      "ump": 598,
      "Ġif": 599,
      "Ġen": 600,
      "Ġover": 601,
      "Tom": 602,
      "ge": 603,
      "ob": 604,
      "Ġcouldn": 605,
      "Ġheard": 606,
      "Ġnever": 607,
      "etter": 608,
      "Ġpick": 609,
      "Ġgre": 610,
      "ĠAnna": 611,
      "Ġhugged": 612,
      "ace": 613,
      "ak": 614,
      "Ġstr": 615,
      "Ġpret": 616,
      "dy": 617,
      "ion": 618,
      "Ġwat": 619,
      "Ġexpl": 620,
      "Ġbox": 621,
      "Ġeach": 622,
      "Ġbecause": 623,
      "Ġsmall": 624,
      "Ġthis": 625,
      "Ġneed": 626,
      "Ġjust": 627,
      "ĠEvery": 628,
      "ĠSara": 629,
      "Mom": 630,
      "Ġbu": 631,
      "Ġmany": 632,
      "Ġnice": 633,
      "ile": 634,
      "here": 635,
      "oth": 636,
      "Ġfo": 637,
      "Ġcom": 638,
      "Ġlong": 639,
      "uc": 640,
      "Ġqu": 641,
      "'m": 642,
      "urt": 643,
      "sed": 644,
      "imal": 645,
      "Ġanimal": 646,
      "iz": 647,
      "by": 648,
      "gry": 649,
      "ving": 650,
      "Ġsn": 651,
      "Ġbear": 652,
      "ine": 653,
      "Ġoff": 654,
      "Ġtry": 655,
      "Ġlearned": 656,
      "Ġlove": 657,
      "ort": 658,
      "ild": 659,
      "ough": 660,
      "Ġbetter": 661,
      "ft": 662,
      "Ġunt": 663,
      "sel": 664,
      "ĠJack": 665,
      "Ġflow": 666,
      "Yes": 667,
      "ĠMia": 668,
      "Ġcall": 669,
      "Ġuntil": 670,
      "Ġbest": 671,
      "ĠC": 672,
      "Ġkind": 673,
      "em": 674,
      "ĠAnd": 675,
      "Ġcle": 676,
      "Th": 677,
      "Ġdre": 678,
      "ars": 679,
      "Ġim": 680,
      "Ġpu": 681,
      "Ġdon": 682,
      "Ġend": 683,
      "urn": 684,
      "ĠJo": 685,
      "aut": 686,
      "He": 687,
      "ady": 688,
      "Ġcareful": 689,
      "ves": 690,
      "Ġfi": 691,
      "Ġgr": 692,
      "ber": 693,
      "ĠHer": 694,
      "lly": 695,
      "Ġad": 696,
      "ĠSo": 697,
      "Ġthanked": 698,
      "Ġche": 699,
      "Ġeven": 700,
      "Ġbra": 701,
      "Ġlaughed": 702,
      "vent": 703,
      "Ġbeaut": 704,
      "Ġsky": 705,
      "Ġjump": 706,
      "Ġfast": 707,
      "lew": 708,
      "urp": 709,
      "Ġte": 710,
      "Ġgard": 711,
      "Ġgarden": 712,
      "iny": 713,
      "pt": 714,
      "oy": 715,
      "Ġhurt": 716,
      "Ġby": 717,
      "Ġlist": 718,
      "Ġloud": 719,
      "Ġgl": 720,
      "self": 721,
      "ase": 722,
      "Ġstill": 723,
      "Ġbeauti": 724,
      "Ġlots": 725,
      "It": 726,
      "Ġbeautiful": 727,
      "Ġanimals": 728,
      "Ġcome": 729,
      "wn": 730,
      "Ġhard": 731,
      "Ġlived": 732,
      "Ġway": 733,
      "ĠFrom": 734,
      "rm": 735,
      "Ġunder": 736,
      "ies": 737,
      "hes": 738,
      "ct": 739,
      "Ġfam": 740,
      "Tim": 741,
      "Ġlet": 742,
      "ĠHis": 743,
      "be": 744,
      "Ġwo": 745,
      "ool": 746,
      "Ġcol": 747,
      "Ġra": 748,
      "Ġcu": 749,
      "ock": 750,
      "ect": 751,
      "Åĵ": 752,
      "ucy": 753,
      "Ġboth": 754,
      "igh": 755,
      "ning": 756,
      "kay": 757,
      "ĠThen": 758,
      "Ġits": 759,
      "Ġsafe": 760,
      "Ġdan": 761,
      "Ġrem": 762,
      "Ġbad": 763,
      "Ġflew": 764,
      "Ġbrave": 765,
      "Ġbook": 766,
      "ane": 767,
      "Ġstay": 768,
      "Ġstor": 769,
      "Ġdoll": 770,
      "ast": 771,
      "Ġimp": 772,
      "Ġcalled": 773,
      "ople": 774,
      "Ġred": 775,
      "Ġshould": 776,
      "Ġfly": 777,
      "Ġtwo": 778,
      "ree": 779,
      "ĠÃ¢": 780,
      "Ġangry": 781,
      "When": 782,
      "ished": 783,
      "Ġwalked": 784,
      "Ġdra": 785,
      "Ġfin": 786,
      "Let": 787,
      "Ġpic": 788,
      "Ġclean": 789,
      "dded": 790,
      "age": 791,
      "Ġrock": 792,
      "Ġfamily": 793,
      "Ġshare": 794,
      "ip": 795,
      "Ġpeople": 796,
      "urpr": 797,
      "xt": 798,
      "led": 799,
      "ĠP": 800,
      "Ġsurpr": 801,
      "hn": 802,
      "illy": 803,
      "Ġsoon": 804,
      "No": 805,
      "Ġpretty": 806,
      "ĠWhen": 807,
      "Ġshiny": 808,
      "Ben": 809,
      "fore": 810,
      "Ġwind": 811,
      "Ġground": 812,
      "Ġkept": 813,
      "ummy": 814,
      "Ġfore": 815,
      "oon": 816,
      "Ġgoing": 817,
      "Ġnow": 818,
      "Ġsto": 819,
      "Ġdoor": 820,
      "Ġcon": 821,
      "Ġnoise": 822,
      "eet": 823,
      "ised": 824,
      "ary": 825,
      "Ġkeep": 826,
      "Ġnodded": 827,
      "Ġey": 828,
      "Ġide": 829,
      "Ġopened": 830,
      "ture": 831,
      "ied": 832,
      "What": 833,
      "Ġadvent": 834,
      "Ġfar": 835,
      "Ġturn": 836,
      "Ġexplore": 837,
      "Ġtruck": 838,
      "Ġcry": 839,
      "âĤ¬â": 840,
      "Ġcolor": 841,
      "Ġbefore": 842,
      "ĠLucy": 843,
      "ff": 844,
      "imb": 845,
      "Ġwhile": 846,
      "Ġclimb": 847,
      "Ġfr": 848,
      "aybe": 849,
      "That": 850,
      "Ġbed": 851,
      "Ġidea": 852,
      "Ġcre": 853,
      "thing": 854,
      "Ġpicked": 855,
      "Ġreal": 856,
      "so": 857,
      "Thank": 858,
      "Ġwr": 859,
      "Ġthr": 860,
      "Ġfeeling": 861,
      "Ġalso": 862,
      "Ġnext": 863,
      "hy": 864,
      "les": 865,
      "Ġpicture": 866,
      "ger": 867,
      "Ġhas": 868,
      "kes": 869,
      "Ġun": 870,
      "ĠG": 871,
      "uch": 872,
      "ĠSue": 873,
      "Ġtra": 874,
      "Ġsmile": 875,
      "Ħ¢": 876,
      "Ġwait": 877,
      "âĤ¬âĦ¢": 878,
      "ting": 879,
      "Ġtow": 880,
      "iced": 881,
      "Ġwalking": 882,
      "Ġjo": 883,
      "ious": 884,
      "joy": 885,
      "Ġma": 886,
      "ember": 887,
      "Ġlisten": 888,
      "Ġclos": 889,
      "Ġstopped": 890,
      "Ġadventure": 891,
      "ted": 892,
      "Ġafter": 893,
      "Ġblue": 894,
      "Ġwalk": 895,
      "Ġslide": 896,
      "Ġeyes": 897,
      "Ġbeing": 898,
      "ught": 899,
      "Ġfood": 900,
      "Ġhands": 901,
      "Ġwatch": 902,
      "Ġgreat": 903,
      "ac": 904,
      "Ġstrong": 905,
      "Ġremember": 906,
      "Ġfish": 907,
      "Ġlooking": 908,
      "Ġdif": 909,
      "Ġrepl": 910,
      "Ġthink": 911,
      "Ġdel": 912,
      "She": 913,
      "Ġask": 914,
      "Ġenjoy": 915,
      "Ġgive": 916,
      "Ġever": 917,
      "maz": 918,
      "ĠSuddenly": 919,
      "Ġflowers": 920,
      "able": 921,
      "Ġamaz": 922,
      "Ġbre": 923,
      "Ġus": 924,
      "llow": 925,
      "Ġbro": 926,
      "Ġtal": 927,
      "ĠBob": 928,
      "Ġdis": 929,
      "ĠSp": 930,
      "Ġsound": 931,
      "Ġnoticed": 932,
      "Ġvo": 933,
      "irst": 934,
      "Ġokay": 935,
      "Suddenly": 936,
      "Ġapp": 937,
      "Ġshout": 938,
      "ĠDad": 939,
      "Ġrain": 940,
      "Ġshowed": 941,
      "ĠR": 942,
      "Ġnear": 943,
      "Ġquick": 944,
      "Ġwonder": 945,
      "Ġforest": 946,
      "Ġown": 947,
      "ized": 948,
      "co": 949,
      "Ġboat": 950,
      "bbit": 951,
      "Ġbecame": 952,
      "Ġright": 953,
      "Ġmean": 954,
      "Ġwork": 955,
      "bye": 956,
      "We": 957,
      "Ġstick": 958,
      "Ġreplied": 959,
      "gan": 960,
      "Ġfollow": 961,
      "Ġac": 962,
      "Ġhead": 963,
      "lease": 964,
      "ĠN": 965,
      "Ġhigh": 966,
      "Ġimport": 967,
      "Ġyell": 968,
      "Ġeveryone": 969,
      "Ġuse": 970,
      "Ġour": 971,
      "Ġplace": 972,
      "Look": 973,
      "Ġam": 974,
      "Ġmor": 975,
      "ath": 976,
      "Ġimportant": 977,
      "Ġrabbit": 978,
      "Ġde": 979,
      "ange": 980,
      "Ġcuri": 981,
      "bbed": 982,
      "day": 983,
      "Ġblock": 984,
      "Ġwhere": 985,
      "Ġwatched": 986,
      "fere": 987,
      "ndma": 988,
      "Ġhop": 989,
      "Ġbright": 990,
      "Ġdiffere": 991,
      "Ġcloser": 992,
      "aught": 993,
      "Ġar": 994,
      "So": 995,
      "ila": 996,
      "Ġgoodbye": 997,
      "Ġcurious": 998,
      "ered": 999,
      "Ġmag": 1000,
      "more": 1001,
      "Ġanymore": 1002,
      "Ġdoes": 1003,
      "leep": 1004,
      "Ġface": 1005,
      "Ġquickly": 1006,
      "Ġopen": 1007,
      "Ġbeen": 1008,
      "Ġdress": 1009,
      "ng": 1010,
      "Ġpain": 1011,
      "itc": 1012,
      "ĠSpot": 1013,
      "Ġwarm": 1014,
      "Ġvoice": 1015,
      "Ġcake": 1016,
      "Sara": 1017,
      "Anna": 1018,
      "Ġye": 1019,
      "Ġstore": 1020,
      "Can": 1021,
      "Ġtell": 1022,
      "Ġsure": 1023,
      "Ġbel": 1024,
      "Ġdifferent": 1025,
      "Ġforg": 1026,
      "Her": 1027,
      "Ġcook": 1028,
      "Ġchild": 1029,
      "ĠTh": 1030,
      "Ġstory": 1031,
      "Ġcou": 1032,
      "ired": 1033,
      "ĠMommy": 1034,
      "Ġfire": 1035,
      "Ġfirst": 1036,
      "Ġsweet": 1037,
      "ached": 1038,
      "Ġhelped": 1039,
      "ull": 1040,
      "Ġsees": 1041,
      "Ġz": 1042,
      "Ġfell": 1043,
      "uff": 1044,
      "Ġfav": 1045,
      "imes": 1046,
      "Ġbutter": 1047,
      "Ġpull": 1048,
      "Ġper": 1049,
      "Ġnight": 1050,
      "Ġru": 1051,
      "Ġlea": 1052,
      "Ġkitc": 1053,
      "Ġkitchen": 1054,
      "Ġhere": 1055,
      "Ġbus": 1056,
      "Ġdraw": 1057,
      "Ġcont": 1058,
      "Jo": 1059,
      "Ġbit": 1060,
      "Ġthree": 1061,
      "isy": 1062,
      "ĠDo": 1063,
      "Ġkid": 1064,
      "iss": 1065,
      "Ġhappened": 1066,
      "Ġjumped": 1067,
      "Ġbrother": 1068,
      "After": 1069,
      "Ġsing": 1070,
      "Ġgame": 1071,
      "Ġbeh": 1072,
      "Ġflo": 1073,
      "ins": 1074,
      "Ġbirds": 1075,
      "ppy": 1076,
      "Ġsoft": 1077,
      "Ġprin": 1078,
      "Ġdr": 1079,
      "ner": 1080,
      "Ġstop": 1081,
      "Ġonly": 1082,
      "unny": 1083,
      "Ġglad": 1084,
      "zy": 1085,
      "ĠJane": 1086,
      "Ġsand": 1087,
      "ĠLet": 1088,
      "Ġcra": 1089,
      "akes": 1090,
      "Ġmess": 1091,
      "'re": 1092,
      "Ġgrass": 1093,
      "Ġmon": 1094,
      "Ġgrabbed": 1095,
      "Ġhat": 1096,
      "Ġworld": 1097,
      "Ġreached": 1098,
      "Ġrest": 1099,
      "Ġhaving": 1100,
      "Ġcut": 1101,
      "Ġshouted": 1102,
      "Ġcr": 1103,
      "Ġlady": 1104,
      "ĠAs": 1105,
      "Wow": 1106,
      "Ġyummy": 1107,
      "Ġate": 1108,
      "nts": 1109,
      "Ġname": 1110,
      "Ġthrough": 1111,
      "Ġready": 1112,
      "Ġfro": 1113,
      "Ġsqu": 1114,
      "ater": 1115,
      "Ġworry": 1116,
      "Ġblocks": 1117,
      "Ġpap": 1118,
      "Ġdone": 1119,
      "ĠCan": 1120,
      "olly": 1121,
      "Ġcried": 1122,
      "Ġpond": 1123,
      "Ġflower": 1124,
      "ĠEveryone": 1125,
      "Ġthing": 1126,
      "ass": 1127,
      "Ġrealized": 1128,
      "ient": 1129,
      "Ġfunny": 1130,
      "Ġfavor": 1131,
      "Ġmagic": 1132,
      "Ġtired": 1133,
      "As": 1134,
      "Ġreally": 1135,
      "Ġcatch": 1136,
      "Ġless": 1137,
      "Ġfavorite": 1138,
      "Ġtri": 1139,
      "ather": 1140,
      "air": 1141,
      "Ġtast": 1142,
      "Ġwaved": 1143,
      "Ġbegan": 1144,
      "Ġmum": 1145,
      "where": 1146,
      "Ġgreen": 1147,
      "Ġunderst": 1148,
      "Ġpare": 1149,
      "Ġlooks": 1150,
      "Ġkids": 1151,
      "ken": 1152,
      "Ġpus": 1153,
      "Mommy": 1154,
      "Ġdin": 1155,
      "fully": 1156,
      "Ġbutterf": 1157,
      "Ġseen": 1158,
      "Ġpretend": 1159,
      "ĠJohn": 1160,
      "th": 1161,
      "ards": 1162,
      "Ġfix": 1163,
      "Ġcoming": 1164,
      "Ġhair": 1165,
      "Ġfill": 1166,
      "Don": 1167,
      "Ġbunny": 1168,
      "Ġanother": 1169,
      "aisy": 1170,
      "eddy": 1171,
      "Ġmaking": 1172,
      "mer": 1173,
      "Ġhimself": 1174,
      "Ġpart": 1175,
      "sh": 1176,
      "Ġswing": 1177,
      "Ġhole": 1178,
      "ign": 1179,
      "Ġread": 1180,
      "Ġtouch": 1181,
      "ĠThat": 1182,
      "Ġbag": 1183,
      "Ġcool": 1184,
      "Ġused": 1185,
      "Ġyellow": 1186,
      "Ġfrog": 1187,
      "ĠSarah": 1188,
      "Timmy": 1189,
      "Ġba": 1190,
      "ster": 1191,
      "Ġcold": 1192,
      "Ġprom": 1193,
      "Ġbehind": 1194,
      "Ġsmell": 1195,
      "ĠJoe": 1196,
      "Ġsleep": 1197,
      "ely": 1198,
      "Ġswim": 1199,
      "bo": 1200,
      "Ġdro": 1201,
      "Ġworked": 1202,
      "Ġtrees": 1203,
      "Ġsurprise": 1204,
      "Ġste": 1205,
      "Ġrunning": 1206,
      "ike": 1207,
      "Ġlight": 1208,
      "Ġpaper": 1209,
      "Ġwhy": 1210,
      "Ġdelic": 1211,
      "Ġparents": 1212,
      "Ġgi": 1213,
      "ued": 1214,
      "Ġhopped": 1215,
      "Ġwood": 1216,
      "Ġwished": 1217,
      "Ġhold": 1218,
      "Ġset": 1219,
      "Ġdark": 1220,
      "oney": 1221,
      "Ġhappily": 1222,
      "Ġmouse": 1223,
      "Ġlaugh": 1224,
      "Hell": 1225,
      "ation": 1226,
      "Hello": 1227,
      "Ġremembered": 1228,
      "Ġfull": 1229,
      "Ġslow": 1230,
      "Ġsho": 1231,
      "Ġlost": 1232,
      "Ġcars": 1233,
      "Ġlion": 1234,
      "Ġtop": 1235,
      "Ġlikes": 1236,
      "Ġfloor": 1237,
      "Ġperf": 1238,
      "Ġdri": 1239,
      "Ġdream": 1240,
      "Ġtall": 1241,
      "Ġbuy": 1242,
      "Ġsat": 1243,
      "Ġduck": 1244,
      "Ġmove": 1245,
      "ens": 1246,
      "Ġlesson": 1247,
      "Ġhill": 1248,
      "Sam": 1249,
      "ul": 1250,
      "Ġbow": 1251,
      "Ġenjoyed": 1252,
      "Ġsnow": 1253,
      "Ġpre": 1254,
      "Ġbutterfly": 1255,
      "Ġneeded": 1256,
      "Ġwear": 1257,
      "Ġleft": 1258,
      "Ġwindow": 1259,
      "iver": 1260,
      "Ġcarefully": 1261,
      "Ġthank": 1262,
      "Ġbuild": 1263,
      "rel": 1264,
      "\".": 1265,
      "ĠBenny": 1266,
      "Ġyears": 1267,
      "Ġhear": 1268,
      "Ġbug": 1269,
      "ĠAfter": 1270,
      "Ġheld": 1271,
      "Ġspot": 1272,
      "Ġhid": 1273,
      "Ġdoing": 1274,
      "Ġhun": 1275,
      "ren": 1276,
      "Ġanything": 1277,
      "cess": 1278,
      "Ġair": 1279,
      "uffy": 1280,
      "andy": 1281,
      "Ġfollowed": 1282,
      "Ġherself": 1283,
      "Ġ-": 1284,
      "Ġice": 1285,
      "John": 1286,
      "Ġwrong": 1287,
      "Ġfair": 1288,
      "Ġtable": 1289,
      "ĠIn": 1290,
      "asure": 1291,
      "Ġcontin": 1292,
      "Ġfriendly": 1293,
      "Ġfinished": 1294,
      "Ġarri": 1295,
      "reed": 1296,
      "Ġplease": 1297,
      "ined": 1298,
      "Ġsurprised": 1299,
      "orn": 1300,
      "Ġdir": 1301,
      "inally": 1302,
      "ĠDaisy": 1303,
      "ds": 1304,
      "Ġcast": 1305,
      "Ġbooks": 1306,
      "gon": 1307,
      "ream": 1308,
      "ash": 1309,
      "ĠK": 1310,
      "Ġgent": 1311,
      "ĠSally": 1312,
      "uit": 1313,
      "Ġchildren": 1314,
      "Ġsong": 1315,
      "ĠLila": 1316,
      "sp": 1317,
      "ross": 1318,
      "av": 1319,
      "ield": 1320,
      "Ġunderstand": 1321,
      "Ġdelicious": 1322,
      "Ġarrived": 1323,
      "Ġtight": 1324,
      "Ġmus": 1325,
      "Ġarm": 1326,
      "Ġmight": 1327,
      "OK": 1328,
      "Ġwonderful": 1329,
      "Ġclose": 1330,
      "Ġwants": 1331,
      "room": 1332,
      "Ġcontinued": 1333,
      "Ġmakes": 1334,
      "Ġcolors": 1335,
      "Ġleaves": 1336,
      "Ġhot": 1337,
      "Ġgrandma": 1338,
      "ĠNow": 1339,
      "Ġmat": 1340,
      "Ġforgot": 1341,
      "Ġdinner": 1342,
      "Then": 1343,
      "Ġrel": 1344,
      "Ġel": 1345,
      "Ġtail": 1346,
      "From": 1347,
      "Ġgone": 1348,
      "Ġbroken": 1349,
      "Ġpoin": 1350,
      "Ġfilled": 1351,
      "Ġmet": 1352,
      "Jack": 1353,
      "Ġsomeone": 1354,
      "man": 1355,
      "Ġscary": 1356,
      "Ġcreat": 1357,
      "Ġyes": 1358,
      "Ġvis": 1359,
      "Ġwall": 1360,
      "Ġmoment": 1361,
      "icy": 1362,
      "Ġpat": 1363,
      "Ġballoon": 1364,
      "Ġcount": 1365,
      "'ll": 1366,
      "ced": 1367,
      "ey": 1368,
      "Ġable": 1369,
      "Ġpink": 1370,
      "Ġagreed": 1371,
      "ich": 1372,
      "This": 1373,
      "Ġpictures": 1374,
      "ĠThere": 1375,
      "ĠEm": 1376,
      "Ġothers": 1377,
      "Ġtalk": 1378,
      "Ġwet": 1379,
      "row": 1380,
      "ĠBilly": 1381,
      "Ġamazing": 1382,
      "ask": 1383,
      "Ġelse": 1384,
      "Ġbreak": 1385,
      "Ġsmiles": 1386,
      "Ġfall": 1387,
      "Ġmother": 1388,
      "Ġcastle": 1389,
      "Ġgetting": 1390,
      "Ġhungry": 1391,
      "red": 1392,
      "Ġenough": 1393,
      "Ġclot": 1394,
      "Ġcookies": 1395,
      "ĠMaybe": 1396,
      "Ġtrying": 1397,
      "ĠThis": 1398,
      "Ġmar": 1399,
      "ctor": 1400,
      "lf": 1401,
      "ons": 1402,
      "Ġwhite": 1403,
      "Ġmorning": 1404,
      "Ġclothes": 1405,
      "oup": 1406,
      "ĠWhat": 1407,
      "Ġmusic": 1408,
      "oom": 1409,
      "Ġsquir": 1410,
      "key": 1411,
      "His": 1412,
      "Ġbrought": 1413,
      "Ġturned": 1414,
      "rot": 1415,
      "Ġpuppy": 1416,
      "Ġpi": 1417,
      "Ġfinally": 1418,
      "Ġclimbed": 1419,
      "lc": 1420,
      "Ġfew": 1421,
      "ĠFl": 1422,
      "At": 1423,
      "Ġsail": 1424,
      "Ġlistened": 1425,
      "Ġperfect": 1426,
      "Ġroll": 1427,
      "Ġdaddy": 1428,
      "ries": 1429,
      "Ġsquirrel": 1430,
      "Ġju": 1431,
      "app": 1432,
      "Ġpet": 1433,
      "amp": 1434,
      "Ġasks": 1435,
      "Ġspl": 1436,
      "Ġsometimes": 1437,
      "Maybe": 1438,
      "oring": 1439,
      "ĠJen": 1440,
      "Ġcomp": 1441,
      "wl": 1442,
      "zz": 1443,
      "Ġeverything": 1444,
      "Ġstayed": 1445,
      "Ġwaited": 1446,
      "apped": 1447,
      "ance": 1448,
      "Ġbeach": 1449,
      "Oh": 1450,
      "que": 1451,
      "Ġsilly": 1452,
      "ister": 1453,
      "gg": 1454,
      "ucky": 1455,
      "Ġalone": 1456,
      "Ġpol": 1457,
      "Ġgrow": 1458,
      "Ġfight": 1459,
      "ated": 1460,
      "Ġdeep": 1461,
      "ĠGra": 1462,
      "der": 1463,
      "Ġteddy": 1464,
      "Ġdanger": 1465,
      "Ġve": 1466,
      "Ġhide": 1467,
      "Ġcloud": 1468,
      "ower": 1469,
      "Ġride": 1470,
      "Ġstrange": 1471,
      "Ġwoods": 1472,
      "os": 1473,
      "Ġwasn": 1474,
      "ama": 1475,
      "Ġvisit": 1476,
      "Ġamazed": 1477,
      "Ġsit": 1478,
      "ope": 1479,
      "ence": 1480,
      "Ġsear": 1481,
      "Ġspark": 1482,
      "Ġthre": 1483,
      "Ġfox": 1484,
      "Ġbaby": 1485,
      "Ġtowards": 1486,
      "Ġflying": 1487,
      "Ġpen": 1488,
      "ott": 1489,
      "Ġpulled": 1490,
      "Ġlake": 1491,
      "Ġpa": 1492,
      "Ġcream": 1493,
      "Max": 1494,
      "Ġmoral": 1495,
      "ever": 1496,
      "ix": 1497,
      "ze": 1498,
      "eter": 1499,
      "Ġjoy": 1500,
      "Ġbran": 1501,
      "Ġdragon": 1502,
      "ĠAmy": 1503,
      "me": 1504,
      "ph": 1505,
      "ames": 1506,
      "Ġtrain": 1507,
      "Ġgu": 1508,
      "Ġjob": 1509,
      "Okay": 1510,
      "med": 1511,
      "Ġcup": 1512,
      "avy": 1513,
      "Ġsister": 1514,
      "Ġthinks": 1515,
      "up": 1516,
      "Ġbike": 1517,
      "Ġdolls": 1518,
      "cket": 1519,
      "Ġshar": 1520,
      "ssed": 1521,
      "thy": 1522,
      "Ġbigger": 1523,
      "ises": 1524,
      "igg": 1525,
      "Ġleave": 1526,
      "Ġside": 1527,
      "Ġliving": 1528,
      "ugg": 1529,
      "Ġshared": 1530,
      "Ġparty": 1531,
      "ang": 1532,
      "unch": 1533,
      "outh": 1534,
      "ĠTommy": 1535,
      "Ġprincess": 1536,
      "Ġworried": 1537,
      "Ġtreasure": 1538,
      "Ġpromised": 1539,
      "Ġgif": 1540,
      "Ġland": 1541,
      "Ġdance": 1542,
      "Ġruns": 1543,
      "Ġblank": 1544,
      "Ġmouth": 1545,
      "Ġfur": 1546,
      "Ġpaint": 1547,
      "Ġwon": 1548,
      "Ġwelc": 1549,
      "Ġgrate": 1550,
      "eces": 1551,
      "ained": 1552,
      "Ġblanket": 1553,
      "Ġfield": 1554,
      "Ġbott": 1555,
      "Ġcandy": 1556,
      "Ġdoctor": 1557,
      "Ġpieces": 1558,
      "Ġgrateful": 1559,
      "Ġhelping": 1560,
      "Ġjoin": 1561,
      "Ġslowly": 1562,
      "Ġem": 1563,
      "Ġblack": 1564,
      "Ġmoney": 1565,
      "orm": 1566,
      "Ġpot": 1567,
      "Ġfarmer": 1568,
      "Ġdangerous": 1569,
      "Ġtreat": 1570,
      "Ġowner": 1571,
      "ire": 1572,
      "Ġeverywhere": 1573,
      "Ġbelie": 1574,
      "Ġmagical": 1575,
      "ĠFluffy": 1576,
      "Ġbowl": 1577,
      "cle": 1578,
      "Ġmost": 1579,
      "iet": 1580,
      "Ġsign": 1581,
      "Ġfaster": 1582,
      "Hi": 1583,
      "ĠAll": 1584,
      "sw": 1585,
      "ually": 1586,
      "Ġcrying": 1587,
      "Ġpie": 1588,
      "Ġheavy": 1589,
      "leph": 1590,
      "Ġplan": 1591,
      "Ġmonkey": 1592,
      "set": 1593,
      "Ġreach": 1594,
      "Ġatt": 1595,
      "Ġansw": 1596,
      "Sure": 1597,
      "fort": 1598,
      "Ġcarrot": 1599,
      "ipp": 1600,
      "ĠMolly": 1601,
      "ol": 1602,
      "ĠJill": 1603,
      "bble": 1604,
      "Ġcolorful": 1605,
      "Ġtower": 1606,
      "Ġsmart": 1607,
      "Why": 1608,
      "ee": 1609,
      "ipped": 1610,
      "Ġtwins": 1611,
      "immy": 1612,
      "Ġplant": 1613,
      "Ġcho": 1614,
      "Ġquiet": 1615,
      "Ġsnack": 1616,
      "Ġdirty": 1617,
      "Ġsec": 1618,
      "Ġscream": 1619,
      "cy": 1620,
      "Ġmix": 1621,
      "ĠTo": 1622,
      "ear": 1623,
      "ling": 1624,
      "Ġstepped": 1625,
      "Ġwords": 1626,
      "Ġbroke": 1627,
      "chool": 1628,
      "Ġbath": 1629,
      "less": 1630,
      "Ġclosed": 1631,
      "Ġacc": 1632,
      "Ġsuch": 1633,
      "Ġpro": 1634,
      "Ġbar": 1635,
      "Ġhig": 1636,
      "umb": 1637,
      "ased": 1638,
      "Ġthrew": 1639,
      "ming": 1640,
      "Ġacross": 1641,
      "weet": 1642,
      "ident": 1643,
      "Ġhoped": 1644,
      "Ġwin": 1645,
      "Ġbuck": 1646,
      "cked": 1647,
      "Ġschool": 1648,
      "Ġstuck": 1649,
      "Ġtown": 1650,
      "Ġrace": 1651,
      "Ġdisapp": 1652,
      "Ġshap": 1653,
      "Ġeating": 1654,
      "Ġnap": 1655,
      "Ġheart": 1656,
      "Ġlon": 1657,
      "Ġheal": 1658,
      "Ġyard": 1659,
      "Ġsame": 1660,
      "Ġteac": 1661,
      "Ġcray": 1662,
      "de": 1663,
      "Ġcour": 1664,
      "ored": 1665,
      "Ġneigh": 1666,
      "Ġriver": 1667,
      "Ġspr": 1668,
      "Ġmust": 1669,
      "Ġlonely": 1670,
      "Ġsecret": 1671,
      "orrow": 1672,
      "Ġneighb": 1673,
      "Mia": 1674,
      "Ġbutt": 1675,
      "iting": 1676,
      "Ġfeels": 1677,
      "Ġbrown": 1678,
      "Ġcourse": 1679,
      "Ġje": 1680,
      "Ġthrow": 1681,
      "Ġwithout": 1682,
      "Ġhigher": 1683,
      "Ġbite": 1684,
      "Ġstand": 1685,
      "Ġshoes": 1686,
      "Ġwelcome": 1687,
      "Ġpushed": 1688,
      "Ġgentle": 1689,
      "Ġmonster": 1690,
      "br": 1691,
      "Ġfruit": 1692,
      "ts": 1693,
      "ract": 1694,
      "ney": 1695,
      "Ġhit": 1696,
      "Ġclapped": 1697,
      "Ġnoises": 1698,
      "Ġswings": 1699,
      "Ġbelieve": 1700,
      "Ġcoll": 1701,
      "eared": 1702,
      "Ġsea": 1703,
      "Ġtoday": 1704,
      "Ġteacher": 1705,
      "bow": 1706,
      "Ġgames": 1707,
      "Ġbee": 1708,
      "Ġbring": 1709,
      "ek": 1710,
      "ere": 1711,
      "ĠMr": 1712,
      "Ġcheered": 1713,
      "Ġrocks": 1714,
      "Ġlunch": 1715,
      "Ġleg": 1716,
      "Ġaccident": 1717,
      "Ġband": 1718,
      "ier": 1719,
      "Lila": 1720,
      "Ġpack": 1721,
      "Ġowl": 1722,
      "Ġneck": 1723,
      "Ġdrove": 1724,
      "Ġwings": 1725,
      "Ġupset": 1726,
      "Ġwell": 1727,
      "Ġpocket": 1728,
      "Ġfree": 1729,
      "Ġsang": 1730,
      "Ġjour": 1731,
      "Ġsmo": 1732,
      "ventually": 1733,
      "Ġfairy": 1734,
      "Finally": 1735,
      "Ġexplained": 1736,
      "Ġapple": 1737,
      "ible": 1738,
      "Ġben": 1739,
      "Ġcaught": 1740,
      "Ġhugs": 1741,
      "Ġorange": 1742,
      "Ġlonger": 1743,
      "Ġrainbow": 1744,
      "Ġdropped": 1745,
      "lephant": 1746,
      "Ġsoup": 1747,
      "Ġpig": 1748,
      "Ġwouldn": 1749,
      "ead": 1750,
      "issed": 1751,
      "asket": 1752,
      "Ġca": 1753,
      "Ġadventures": 1754,
      "ment": 1755,
      "oun": 1756,
      "Ġpers": 1757,
      "ĠEmma": 1758,
      "Ġdry": 1759,
      "Ġshop": 1760,
      "bby": 1761,
      "Ġhappen": 1762,
      "Ġinst": 1763,
      "Ġelephant": 1764,
      "Ġforget": 1765,
      "Ġturns": 1766,
      "Ġtom": 1767,
      "Ġmoved": 1768,
      "vel": 1769,
      "Ġspoon": 1770,
      "Ġnaught": 1771,
      "itty": 1772,
      "Ġmin": 1773,
      "idge": 1774,
      "ors": 1775,
      "Ġchair": 1776,
      "Ġswam": 1777,
      "ches": 1778,
      "Ġbasket": 1779,
      "Ġalong": 1780,
      "Ġfence": 1781,
      "Ġresp": 1782,
      "Ġnose": 1783,
      "Ġstre": 1784,
      "Ġplac": 1785,
      "Ġwhe": 1786,
      "Ġnaughty": 1787,
      "ĠDaddy": 1788,
      "Ġmine": 1789,
      "ord": 1790,
      "itting": 1791,
      "ĠThank": 1792,
      "Ġbranch": 1793,
      "ĠTweet": 1794,
      "Ġsinging": 1795,
      "Do": 1796,
      "ho": 1797,
      "ount": 1798,
      "Ġseemed": 1799,
      "Ġexploring": 1800,
      "cks": 1801,
      "fused": 1802,
      "yard": 1803,
      "Ġsu": 1804,
      "ush": 1805,
      "Ġkite": 1806,
      "Ġbackyard": 1807,
      "Ġbucket": 1808,
      "Ġmiss": 1809,
      "Ġsuddenly": 1810,
      "Ġdes": 1811,
      "ung": 1812,
      "Ġwise": 1813,
      "Ġstar": 1814,
      "ces": 1815,
      "Ġpast": 1816,
      "Ġjuice": 1817,
      "sy": 1818,
      "Ġlate": 1819,
      "ittens": 1820,
      "Ġpres": 1821,
      "Ġwish": 1822,
      "Ġshook": 1823,
      "ocked": 1824,
      "Ġbelong": 1825,
      "Ġbat": 1826,
      "ĠGrandma": 1827,
      "Ġyoung": 1828,
      "Ġtakes": 1829,
      "Ġcave": 1830,
      "Ġstars": 1831,
      "Ġexp": 1832,
      "ĠCome": 1833,
      "cer": 1834,
      "Ġdist": 1835,
      "cing": 1836,
      "Ġsick": 1837,
      "Ġnearby": 1838,
      "Ġob": 1839,
      "llo": 1840,
      "Ġwoke": 1841,
      "hone": 1842,
      "Ġes": 1843,
      "Ġbusy": 1844,
      "Ġtaking": 1845,
      "Ġwhist": 1846,
      "Ġkey": 1847,
      "Ġwar": 1848,
      "Ġtrou": 1849,
      "Ġsounds": 1850,
      "ese": 1851,
      "Ġaf": 1852,
      "Ġthough": 1853,
      "Ġgift": 1854,
      "let": 1855,
      "Ġcomes": 1856,
      "Ġwondered": 1857,
      "Ġdrink": 1858,
      "col": 1859,
      "ail": 1860,
      "Ġtiny": 1861,
      "Ġlaughing": 1862,
      "Ġcarry": 1863,
      "Ġmail": 1864,
      "Ġbench": 1865,
      "Ġpresent": 1866,
      "Ġpurp": 1867,
      "Ġsunny": 1868,
      "ions": 1869,
      "Ġarms": 1870,
      "ped": 1871,
      "Ġnest": 1872,
      "Ġinv": 1873,
      "Bob": 1874,
      "Ġmark": 1875,
      "Ġstu": 1876,
      "Ġstories": 1877,
      "Ġ3": 1878,
      "Ġmad": 1879,
      "ountain": 1880,
      "Of": 1881,
      "vered": 1882,
      "Ġpiece": 1883,
      "Ġcard": 1884,
      "raid": 1885,
      "Ġdriver": 1886,
      "Later": 1887,
      "Ġmil": 1888,
      "Ġafraid": 1889,
      "ose": 1890,
      "Ġcute": 1891,
      "Ġrelie": 1892,
      "Ġmist": 1893,
      "Ġking": 1894,
      "ĠMary": 1895,
      "Ġjar": 1896,
      "Ġpower": 1897,
      "Ġpurple": 1898,
      "Ġsitting": 1899,
      "Ġboun": 1900,
      "Ġpatient": 1901,
      "gged": 1902,
      "aughter": 1903,
      "ward": 1904,
      "Ġcolour": 1905,
      "Ġyear": 1906,
      "Ġwra": 1907,
      "ining": 1908,
      "Ġcozy": 1909,
      "Ġdanced": 1910,
      "Ġsnowman": 1911,
      "Ġhello": 1912,
      "Ġgigg": 1913,
      "Ġround": 1914,
      "Ġfan": 1915,
      "ĠInside": 1916,
      "Ġlift": 1917,
      "pe": 1918,
      "thday": 1919,
      "ball": 1920,
      "uched": 1921,
      "Ġtouched": 1922,
      "Ġeas": 1923,
      "Ġdays": 1924,
      "Ġnothing": 1925,
      "shine": 1926,
      "unt": 1927,
      "Ġexciting": 1928,
      "pping": 1929,
      "sting": 1930,
      "ize": 1931,
      "Ġwatching": 1932,
      "Ġletter": 1933,
      "itten": 1934,
      "Ġsunshine": 1935,
      "Hey": 1936,
      "Ġgives": 1937,
      "eth": 1938,
      "Ġshapes": 1939,
      "Ġmilk": 1940,
      "Ġegg": 1941,
      "Ġcreature": 1942,
      "Ġlife": 1943,
      "Ġholding": 1944,
      "aur": 1945,
      "Ġcir": 1946,
      "Ġfit": 1947,
      "Ġdaughter": 1948,
      "Ġpudd": 1949,
      "ĠFinally": 1950,
      "Ġcheese": 1951,
      "Ġce": 1952,
      "Ġintere": 1953,
      "Ġcomfort": 1954,
      "Ġimag": 1955,
      "Ġswimming": 1956,
      "Ġaccidentally": 1957,
      "Ġbought": 1958,
      "Ġpath": 1959,
      "Ġvill": 1960,
      "Ġdisco": 1961,
      "Lucy": 1962,
      "Ġbirthday": 1963,
      "Ġhope": 1964,
      "Ġbush": 1965,
      "Ġbottle": 1966,
      "Ġinstead": 1967,
      "Ġpuzz": 1968,
      "And": 1969,
      "Good": 1970,
      "Ġfing": 1971,
      "oose": 1972,
      "to": 1973,
      "Ġfarm": 1974,
      "board": 1975,
      "Ġjourney": 1976,
      "alm": 1977,
      "Ġgrand": 1978,
      "Ġstreet": 1979,
      "Ġrelieved": 1980,
      "og": 1981,
      "Ġrob": 1982,
      "Ġpeace": 1983,
      "Ġsharp": 1984,
      "pa": 1985,
      "Ġspo": 1986,
      "Ġsmelled": 1987,
      "Ġlucky": 1988,
      "irt": 1989,
      "Ġwrite": 1990,
      "Ġroad": 1991,
      "Ġgrab": 1992,
      "Ġtasty": 1993,
      "ĠO": 1994,
      "Ġinc": 1995,
      "epend": 1996,
      "Ġanyone": 1997,
      "ness": 1998,
      "Ġpill": 1999,
      "Ġsmiling": 2000,
      "Ġear": 2001,
      "Ġforever": 2002,
      "Ġsandw": 2003,
      "Ġhuge": 2004,
      "Ġpointed": 2005,
      "Ġrespect": 2006,
      "Ġrobot": 2007,
      "ity": 2008,
      "ĠSoon": 2009,
      "fish": 2010,
      "Ġres": 2011,
      "Ġorgan": 2012,
      "Ġtalked": 2013,
      "Ġcrayons": 2014,
      "itch": 2015,
      "Ġfeather": 2016,
      "adow": 2017,
      "ĠMama": 2018,
      "ĠSomet": 2019,
      "Ġact": 2020,
      "Come": 2021,
      "Ġplane": 2022,
      "Ġkick": 2023,
      "Ġknee": 2024,
      "Ġpract": 2025,
      "Ġret": 2026,
      "Ġloves": 2027,
      "Ġkiss": 2028,
      "Ġpromise": 2029,
      "Ġsearched": 2030,
      "Ġtun": 2031,
      "amed": 2032,
      "ĠSammy": 2033,
      "els": 2034,
      "Ġfoot": 2035,
      "Ġzoom": 2036,
      "Ġrolled": 2037,
      "ĠJimmy": 2038,
      "Ġsur": 2039,
      "Ġputs": 2040,
      "Ġlater": 2041,
      "Ġcor": 2042,
      "Ġpar": 2043,
      "blem": 2044,
      "ove": 2045,
      "Ġrope": 2046,
      "Ġproblem": 2047,
      "la": 2048,
      "Ġwild": 2049,
      "Ġclouds": 2050,
      "Ġhealthy": 2051,
      "Ġreturn": 2052,
      "ĠMittens": 2053,
      "ont": 2054,
      "Ġonto": 2055,
      "Ġadm": 2056,
      "Ġstorm": 2057,
      "Ġcouch": 2058,
      "Ġhoney": 2059,
      "Ġzoo": 2060,
      "ale": 2061,
      "Ġwave": 2062,
      "Ġteach": 2063,
      "ĠRe": 2064,
      "Ġbutton": 2065,
      "Ġinteresting": 2066,
      "Ġwide": 2067,
      "Ġcoin": 2068,
      "Ġcoat": 2069,
      "Ġtasted": 2070,
      "Ġcow": 2071,
      "Ġrocket": 2072,
      "Ġfront": 2073,
      "Ġperson": 2074,
      "ten": 2075,
      "Ġsack": 2076,
      "ife": 2077,
      "Ġmyster": 2078,
      "Ġap": 2079,
      "Ġgather": 2080,
      "Ġcollect": 2081,
      "Ġgently": 2082,
      "Ġhelpful": 2083,
      "Ġpass": 2084,
      "Ġeag": 2085,
      "cean": 2086,
      "Ġwhole": 2087,
      "Ġhor": 2088,
      "Ġocean": 2089,
      "Ġash": 2090,
      "Ġbread": 2091,
      "Ġscreamed": 2092,
      "Ġsuc": 2093,
      "Ġgoes": 2094,
      "Ġmeet": 2095,
      "Ġpush": 2096,
      "Ġplaces": 2097,
      "Ġmach": 2098,
      "Ġapples": 2099,
      "ĠJenny": 2100,
      "In": 2101,
      "Ġoven": 2102,
      "Ġshr": 2103,
      "Ġlovely": 2104,
      "Ġbark": 2105,
      "Ġent": 2106,
      "Ġemb": 2107,
      "Ġdi": 2108,
      "Ġasleep": 2109,
      "Tommy": 2110,
      "Ġcheer": 2111,
      "Ġwaiting": 2112,
      "ert": 2113,
      "Ġimpre": 2114,
      "Ġbuilding": 2115,
      "Ġsaf": 2116,
      "izz": 2117,
      "Ġtalking": 2118,
      "Ġquest": 2119,
      "Ġducks": 2120,
      "ching": 2121,
      "Ġprot": 2122,
      "Ġsplas": 2123,
      "Ġshining": 2124,
      "Ġlad": 2125,
      "Ġspicy": 2126,
      "ĠGo": 2127,
      "Ġwearing": 2128,
      "ĠKitty": 2129,
      "Ġpile": 2130,
      "Ġscar": 2131,
      "Ġmud": 2132,
      "Ġpretended": 2133,
      "Ġneighbor": 2134,
      "Ġtrouble": 2135,
      "hile": 2136,
      "Ġbal": 2137,
      "ub": 2138,
      "arra": 2139,
      "Ġfaces": 2140,
      "Ġslid": 2141,
      "Ġpour": 2142,
      "Ġstir": 2143,
      "Ġspent": 2144,
      "Ġembarra": 2145,
      "Ġprotect": 2146,
      "Ġser": 2147,
      "Ġthin": 2148,
      "ird": 2149,
      "Ġconfused": 2150,
      "lex": 2151,
      "owed": 2152,
      "Ġspid": 2153,
      "Ġfinish": 2154,
      "umber": 2155,
      "Ġwhich": 2156,
      "Ġsnake": 2157,
      "Ġpool": 2158,
      "Ġfeet": 2159,
      "Ġdelight": 2160,
      "Ġsupp": 2161,
      "Molly": 2162,
      "Ġforgive": 2163,
      "Ġtrip": 2164,
      "isa": 2165,
      "urse": 2166,
      "aser": 2167,
      "Ġgiant": 2168,
      "Ġtomorrow": 2169,
      "Ġminut": 2170,
      "Ġvillage": 2171,
      "Just": 2172,
      "Ġnut": 2173,
      "Ġstep": 2174,
      "St": 2175,
      "Ġladder": 2176,
      "arge": 2177,
      "Ġflut": 2178,
      "Ġtrust": 2179,
      "Ġspotted": 2180,
      "Ġchick": 2181,
      "Ġmatter": 2182,
      "ĠSometimes": 2183,
      "Ġblew": 2184,
      "Ġcart": 2185,
      "Ġpop": 2186,
      "Ġclever": 2187,
      "Ġsongs": 2188,
      "Ġshy": 2189,
      "Ġworm": 2190,
      "Ġwom": 2191,
      "getable": 2192,
      "bbles": 2193,
      "Ġpuddle": 2194,
      "Ġhon": 2195,
      "nny": 2196,
      "ĠCh": 2197,
      "Ġvegetable": 2198,
      "Ġfurry": 2199,
      "Ġchocol": 2200,
      "Ġcorner": 2201,
      "Ġeventually": 2202,
      "ĠAl": 2203,
      "Ġteeth": 2204,
      "Ġwoman": 2205,
      "Every": 2206,
      "Ġlay": 2207,
      "Ġgun": 2208,
      "Ġfixed": 2209,
      "ĠSome": 2210,
      "Ġseat": 2211,
      "Ġdirt": 2212,
      "ular": 2213,
      "Ġhorse": 2214,
      "Ġwash": 2215,
      "ato": 2216,
      "Ġtaste": 2217,
      "Now": 2218,
      "Ġsal": 2219,
      "Ġant": 2220,
      "Ġcoo": 2221,
      "lebr": 2222,
      "Ġrec": 2223,
      "Ġwhenever": 2224,
      "Ġdrive": 2225,
      "Ġcelebr": 2226,
      "Ġphone": 2227,
      "ĠHow": 2228,
      "Ġspin": 2229,
      "ĠWith": 2230,
      "Ġchocolate": 2231,
      "Ġlem": 2232,
      "Ġshirt": 2233,
      "Ġtries": 2234,
      "Ġanswer": 2235,
      "not": 2236,
      "Ġlarge": 2237,
      "Ġcannot": 2238,
      "Ġcloth": 2239,
      "Ġlast": 2240,
      "Ġembarrassed": 2241,
      "hnny": 2242,
      "Ġban": 2243,
      "Ġnet": 2244,
      "als": 2245,
      "Ġhiding": 2246,
      "Ġneckl": 2247,
      "gly": 2248,
      "Ġwip": 2249,
      "erly": 2250,
      "lla": 2251,
      "Ġshell": 2252,
      "Ġign": 2253,
      "Ġcalm": 2254,
      "Ġrude": 2255,
      "Soon": 2256,
      "Ġ'": 2257,
      "Ġugly": 2258,
      "Ġbugs": 2259,
      "Ġsmooth": 2260,
      "My": 2261,
      "Ġtest": 2262,
      "Ġmind": 2263,
      "Ġremind": 2264,
      "Ġappeared": 2265,
      "Mum": 2266,
      "nic": 2267,
      "old": 2268,
      "ĠTheir": 2269,
      "Ġscre": 2270,
      "Ġstret": 2271,
      "Ġseek": 2272,
      "Ġtea": 2273,
      "Ġpicnic": 2274,
      "Ġcookie": 2275,
      "Ġring": 2276,
      "Ġlive": 2277,
      "Ġkitten": 2278,
      "ighed": 2279,
      "Ġtool": 2280,
      "Ġsticks": 2281,
      "Ġwhistle": 2282,
      "eb": 2283,
      "Ġmaybe": 2284,
      "Ġsol": 2285,
      "Ġhears": 2286,
      "ground": 2287,
      "vous": 2288,
      "Ġpin": 2289,
      "Ġspe": 2290,
      "Ġmot": 2291,
      "ĠTV": 2292,
      "Ġfold": 2293,
      "ĠPlease": 2294,
      "Ġcarrots": 2295,
      "Ġpuzzle": 2296,
      "Ġpan": 2297,
      "Ġpaw": 2298,
      "Ġmed": 2299,
      "Ġstood": 2300,
      "Ġshelf": 2301,
      "Ġsplash": 2302,
      "Ġspray": 2303,
      "Ġnecklace": 2304,
      "mo": 2305,
      "Ġmoon": 2306,
      "ÅĵI": 2307,
      "Ġspider": 2308,
      "ĠJust": 2309,
      "Ġval": 2310,
      "Ġjumping": 2311,
      "arm": 2312,
      "Ġbell": 2313,
      "Ġforward": 2314,
      "Ġmachine": 2315,
      "Ġgas": 2316,
      "den": 2317,
      "Ġmountain": 2318,
      "Ġbarked": 2319,
      "Ġfancy": 2320,
      "Ġcarried": 2321,
      "Ġgrew": 2322,
      "Ġsparkly": 2323,
      "ned": 2324,
      "Ġmeant": 2325,
      "Ġner": 2326,
      "Ġsave": 2327,
      "Ġroar": 2328,
      "Ġtells": 2329,
      "Ġwore": 2330,
      "airs": 2331,
      "ult": 2332,
      "Ġcreative": 2333,
      "ĠEmily": 2334,
      "Ġhel": 2335,
      "Ġflag": 2336,
      "box": 2337,
      "Ġtightly": 2338,
      "Ġfighting": 2339,
      "Ġemp": 2340,
      "Ġnervous": 2341,
      "obby": 2342,
      "Ġsel": 2343,
      "Ġburn": 2344,
      "Ġknocked": 2345,
      "Ġsleepy": 2346,
      "ungle": 2347,
      "read": 2348,
      "Ġship": 2349,
      "ours": 2350,
      "Ġempty": 2351,
      "dge": 2352,
      "hin": 2353,
      "ym": 2354,
      "Ġsour": 2355,
      "pper": 2356,
      "Ġjungle": 2357,
      "Ġblow": 2358,
      "ying": 2359,
      "umpy": 2360,
      "Ġdrew": 2361,
      "Ġgroup": 2362,
      "Ġlanded": 2363,
      "Ġtreats": 2364,
      "Ġpillow": 2365,
      "Ġbanan": 2366,
      "Ġcross": 2367,
      "ĠBe": 2368,
      "Ġwhis": 2369,
      "Ġspread": 2370,
      "Ġtid": 2371,
      "Ġple": 2372,
      "Ġpizz": 2373,
      "ones": 2374,
      "Ġstring": 2375,
      "Ġdrum": 2376,
      "Ġhidden": 2377,
      "Ġpolite": 2378,
      "Ġsharing": 2379,
      "Ġscarf": 2380,
      "aking": 2381,
      "dle": 2382,
      "oin": 2383,
      "Ġcage": 2384,
      "izzy": 2385,
      "Ġyelled": 2386,
      "Ġmysterious": 2387,
      "Ġknight": 2388,
      "ĠWhy": 2389,
      "Ġpri": 2390,
      "Ġashamed": 2391,
      "cap": 2392,
      "Ġgar": 2393,
      "Ġcrab": 2394,
      "Ġque": 2395,
      "Ġhum": 2396,
      "Ġchased": 2397,
      "Ġsnacks": 2398,
      "ian": 2399,
      "Ġbreath": 2400,
      "Ġdisappoin": 2401,
      "Ġmotor": 2402,
      "Ġpir": 2403,
      "Ġgen": 2404,
      "Ġstra": 2405,
      "Ġnods": 2406,
      "Ġselfish": 2407,
      "Ġmissed": 2408,
      "Ġstone": 2409,
      "Ġdecor": 2410,
      "ĠOn": 2411,
      "ital": 2412,
      "Ġcries": 2413,
      "Ġgray": 2414,
      "Ġpowerful": 2415,
      "era": 2416,
      "ella": 2417,
      "Ġvase": 2418,
      "Ġhosp": 2419,
      "Ġclear": 2420,
      "Ġchest": 2421,
      "ery": 2422,
      "ĠTogether": 2423,
      "Ġstanding": 2424,
      "Ġwhisp": 2425,
      "Ġthese": 2426,
      "usie": 2427,
      "Ġvegetables": 2428,
      "Ġhospital": 2429,
      "Ġleaf": 2430,
      "erry": 2431,
      "ony": 2432,
      "Ġlemon": 2433,
      "There": 2434,
      "Ġreg": 2435,
      "Ġgold": 2436,
      "fl": 2437,
      "Ġseed": 2438,
      "Ġjew": 2439,
      "Stop": 2440,
      "Ġqueen": 2441,
      "Ġscr": 2442,
      "Ġbridge": 2443,
      "ustr": 2444,
      "ĠEverywhere": 2445,
      "osaur": 2446,
      "Ġbathroom": 2447,
      "Ġpeaceful": 2448,
      "Ġcap": 2449,
      "Ġpray": 2450,
      "Ġchew": 2451,
      "ĠZ": 2452,
      "Ġline": 2453,
      "ĠLe": 2454,
      "eterm": 2455,
      "Ġpizza": 2456,
      "Ġdisappointed": 2457,
      "Ġfeed": 2458,
      "Be": 2459,
      "Ġav": 2460,
      "Ġbored": 2461,
      "Ġcri": 2462,
      "Ġdeterm": 2463,
      "orry": 2464,
      "Ġboard": 2465,
      "ĠJake": 2466,
      "Ġgiggled": 2467,
      "Where": 2468,
      "erp": 2469,
      "unk": 2470,
      "Ġspoil": 2471,
      "Ġgarage": 2472,
      "ĠOK": 2473,
      "Ġhur": 2474,
      "itter": 2475,
      "Ġmeadow": 2476,
      "ĠDon": 2477,
      "Ġknowing": 2478,
      "Ġeasy": 2479,
      "Jane": 2480,
      "Please": 2481,
      "Ġsaved": 2482,
      "ano": 2483,
      "Ġdancing": 2484,
      "Ġfrustr": 2485,
      "Ġplants": 2486,
      "Ġfinger": 2487,
      "pack": 2488,
      "ĠLisa": 2489,
      "Ġsweetie": 2490,
      "Ġcirc": 2491,
      "Ġsandwich": 2492,
      "Ġcand": 2493,
      "ets": 2494,
      "ĠAnn": 2495,
      "Ġclown": 2496,
      "Ġbecome": 2497,
      "Ġpolice": 2498,
      "most": 2499,
      "Ġsque": 2500,
      "Ġfil": 2501,
      "Sue": 2502,
      "Ġtick": 2503,
      "ĠSt": 2504,
      "cept": 2505,
      "Ġmessy": 2506,
      "ensive": 2507,
      "Ġlegs": 2508,
      "Ġgener": 2509,
      "Ġfig": 2510,
      "ete": 2511,
      "Ġplayground": 2512,
      "ĠMum": 2513,
      "Ġexam": 2514,
      "Ġunderstood": 2515,
      "Ġdinosaur": 2516,
      "Ġexpensive": 2517,
      "Are": 2518,
      "Ġalmost": 2519,
      "ĠPeter": 2520,
      "Ġminutes": 2521,
      "Ġplate": 2522,
      "Ġfear": 2523,
      "Ġtaught": 2524,
      "Ġtears": 2525,
      "light": 2526,
      "Ġruined": 2527,
      "Ġsailed": 2528,
      "Ġfrustrated": 2529,
      "Ġhours": 2530,
      "Ġwaves": 2531,
      "Ġlock": 2532,
      "ĠJohnny": 2533,
      "Ġmatch": 2534,
      "ti": 2535,
      "ĠEven": 2536,
      "Mama": 2537,
      "ual": 2538,
      "Ġwagged": 2539,
      "ator": 2540,
      "Ġmeasure": 2541,
      "ecially": 2542,
      "issors": 2543,
      "Ġtidy": 2544,
      "Dad": 2545,
      "pecially": 2546,
      "Ġtag": 2547,
      "ates": 2548,
      "Ġhang": 2549,
      "Ġshore": 2550,
      "Ġclap": 2551,
      "Ġespecially": 2552,
      "Ġcomfortable": 2553,
      "To": 2554,
      "Ġbone": 2555,
      "Ġgate": 2556,
      "Ġscissors": 2557,
      "Ġanswered": 2558,
      "Ġsuccess": 2559,
      "ĠBr": 2560,
      "Ġasking": 2561,
      "Ġexcite": 2562,
      "Ġtrue": 2563,
      "Ġkissed": 2564,
      "Ġlead": 2565,
      "Ġcaterp": 2566,
      "Ġmistake": 2567,
      "Ġgenerous": 2568,
      "Ġcaterpill": 2569,
      "Ġdest": 2570,
      "Ġpas": 2571,
      "Ġdrawing": 2572,
      "Ġpassed": 2573,
      "Ġfake": 2574,
      "Ġmic": 2575,
      "Ġhopping": 2576,
      "Ġhonest": 2577,
      "Ġsug": 2578,
      "iddle": 2579,
      "illed": 2580,
      "Ġgets": 2581,
      "Ġhurts": 2582,
      "Ġfruits": 2583,
      "Ġpay": 2584,
      "ĠTeddy": 2585,
      "iger": 2586,
      "Ġweak": 2587,
      "Ġfluffy": 2588,
      "Ġyourself": 2589,
      "Ġballs": 2590,
      "Ġglue": 2591,
      "Ġexcitement": 2592,
      "ond": 2593,
      "Ġboring": 2594,
      "Ġoften": 2595,
      "Ġpoor": 2596,
      "Ġgrumpy": 2597,
      "Ġfridge": 2598,
      "Ġflute": 2599,
      "Jill": 2600,
      "arl": 2601,
      "Ġsold": 2602,
      "Ġcaterpillar": 2603,
      "Ġadd": 2604,
      "Ġwis": 2605,
      "ots": 2606,
      "elp": 2607,
      "ĠJim": 2608,
      "Ġsugar": 2609,
      "Ġlit": 2610,
      "oof": 2611,
      "Ġlog": 2612,
      "Ġnumber": 2613,
      "Ġstuff": 2614,
      "arth": 2615,
      "Ġknife": 2616,
      "Ġtaken": 2617,
      "Ġmole": 2618,
      "Ġeye": 2619,
      "Ġtunn": 2620,
      "mb": 2621,
      "Ġtie": 2622,
      "Ġsighed": 2623,
      "Ġsoap": 2624,
      "Ġspend": 2625,
      "iff": 2626,
      "elly": 2627,
      "Ġmoving": 2628,
      "selves": 2629,
      "Ġbalance": 2630,
      "'d": 2631,
      "ĠAt": 2632,
      "Ġglass": 2633,
      "ĠRex": 2634,
      "Ġgathered": 2635,
      "Ġpleased": 2636,
      "Ġtent": 2637,
      "Ġsil": 2638,
      "ĠIf": 2639,
      "illi": 2640,
      "Ġworking": 2641,
      "Ġchange": 2642,
      "Ġcloset": 2643,
      "Sarah": 2644,
      "Ġprince": 2645,
      "Ġreturned": 2646,
      "Jimmy": 2647,
      "Sorry": 2648,
      "Who": 2649,
      "Ġmiddle": 2650,
      "Their": 2651,
      "Ġang": 2652,
      "Ġsplashed": 2653,
      "Ġdetermined": 2654,
      "af": 2655,
      "Ġwander": 2656,
      "Ġcheck": 2657,
      "Ġjog": 2658,
      "Ġeggs": 2659,
      "land": 2660,
      "Ġed": 2661,
      "Ġwagon": 2662,
      "Ġcraw": 2663,
      "Ġdisappeared": 2664,
      "Ġescap": 2665,
      "Ġincred": 2666,
      "port": 2667,
      "uce": 2668,
      "Ġrid": 2669,
      "Ġrad": 2670,
      "?\".": 2671,
      "Ġjoke": 2672,
      "Ġcrawled": 2673,
      "Help": 2674,
      "Ġhorn": 2675,
      "Ġclass": 2676,
      "Ġnod": 2677,
      "Ġpicks": 2678,
      "Ġwalks": 2679,
      "Ġer": 2680,
      "Ġham": 2681,
      "Ġbedroom": 2682,
      "Ġcontent": 2683,
      "Ġdrop": 2684,
      "Ġwheel": 2685,
      "Me": 2686,
      "Ġborrow": 2687,
      "aged": 2688,
      "Ġtwirl": 2689,
      "Ġtrucks": 2690,
      "Ġpacked": 2691,
      "Ġdish": 2692,
      "Ġears": 2693,
      "Ġstones": 2694,
      "Ġdrank": 2695,
      "Ġmighty": 2696,
      "Ġind": 2697,
      "Ġbake": 2698,
      "Ġcover": 2699,
      "Ġlazy": 2700,
      "Ġdecide": 2701,
      "Ġdogs": 2702,
      "Ġfamous": 2703,
      "Ġfeathers": 2704,
      "iness": 2705,
      "ating": 2706,
      "Ġtowel": 2707,
      "Ġthankful": 2708,
      "ĠTweety": 2709,
      "Ġmarket": 2710,
      "ps": 2711,
      "ina": 2712,
      "Ġlying": 2713,
      "Ġmummy": 2714,
      "ote": 2715,
      "Ġbrush": 2716,
      "Ġchoose": 2717,
      "ĠEnd": 2718,
      "Ġglow": 2719,
      "Ġfather": 2720,
      "Ġdepend": 2721,
      "ination": 2722,
      "ĠSusie": 2723,
      "anut": 2724,
      "Ġthick": 2725,
      "Ġrough": 2726,
      "Ġboss": 2727,
      "Ġjam": 2728,
      "usual": 2729,
      "Ġcalling": 2730,
      "Ġcleaned": 2731,
      "Ġunusual": 2732,
      "ĠLeo": 2733,
      "Ġincredible": 2734,
      "Ġweek": 2735,
      "ĠBl": 2736,
      "Ġbody": 2737,
      "Ġshows": 2738,
      "Ġadventur": 2739,
      "Ġorganized": 2740,
      "Ġmir": 2741,
      "ilt": 2742,
      "Ġskipped": 2743,
      "Ġdiscovered": 2744,
      "How": 2745,
      "ĠBu": 2746,
      "Ġcovered": 2747,
      "ushed": 2748,
      "Ġgrandpa": 2749,
      "Ġpointing": 2750,
      "Ġhappening": 2751,
      "Ġadventurous": 2752,
      "Ġpil": 2753,
      "Ġyarn": 2754,
      "aul": 2755,
      "Ġneeds": 2756,
      "Ġaccept": 2757,
      "Ġrelax": 2758,
      "Ġjewel": 2759,
      "gy": 2760,
      "Ġrare": 2761,
      "Ġbrilli": 2762,
      "Ġwrote": 2763,
      "Mummy": 2764,
      "Ġfool": 2765,
      "Ġdizzy": 2766,
      "ork": 2767,
      "ĠBella": 2768,
      "Ġlose": 2769,
      "Ġcoins": 2770,
      "Ġord": 2771,
      "Ġtwig": 2772,
      "Ġcrawl": 2773,
      "Ġsmelly": 2774,
      "Ġmedic": 2775,
      "kin": 2776,
      "imed": 2777,
      "Ġbrilliant": 2778,
      "Ġmedicine": 2779,
      "Billy": 2780,
      "ror": 2781,
      "edient": 2782,
      "Ġrat": 2783,
      "Ġweal": 2784,
      "Ġvan": 2785,
      "Ġsmaller": 2786,
      "Ġcolourful": 2787,
      "Ġtunnel": 2788,
      "Gra": 2789,
      "Ġhunt": 2790,
      "Ġlamp": 2791,
      "imp": 2792,
      "Ġweird": 2793,
      "Ġmoms": 2794,
      "asing": 2795,
      "Ġword": 2796,
      "Ġswan": 2797,
      "Ġmod": 2798,
      "Ġgrown": 2799,
      "Ġteam": 2800,
      "Ġmixed": 2801,
      "Ġwrapped": 2802,
      "Ġchicken": 2803,
      "ĠBrown": 2804,
      "Ġdig": 2805,
      "ature": 2806,
      "Ġsheep": 2807,
      "Ġdistance": 2808,
      "Al": 2809,
      "Ġcop": 2810,
      "Ġow": 2811,
      "Ġdolp": 2812,
      "Ġfalls": 2813,
      "Ġguess": 2814,
      "Ġdependable": 2815,
      "aid": 2816,
      "hip": 2817,
      "Ġlicked": 2818,
      "Ġwolf": 2819,
      "Ġbranches": 2820,
      "work": 2821,
      "Ġfine": 2822,
      "Ġonce": 2823,
      "Ġfrown": 2824,
      "Ġsounded": 2825,
      "Ġfoolish": 2826,
      "ĠMy": 2827,
      "Ġpeanut": 2828,
      "Ġoffered": 2829,
      "Ġcrack": 2830,
      "Ġcrown": 2831,
      "Ġwalls": 2832,
      "Ġsafely": 2833,
      "Ġbitter": 2834,
      "Ġfis": 2835,
      "Ġisland": 2836,
      "Ġboys": 2837,
      "Ġflash": 2838,
      "Ġstronger": 2839,
      "uggled": 2840,
      "Ġbottom": 2841,
      "Ġobedient": 2842,
      "Ġquestions": 2843,
      "Ġedge": 2844,
      "aw": 2845,
      "appy": 2846,
      "Ġsight": 2847,
      "Ġcone": 2848,
      "Ġmap": 2849,
      "Ġrich": 2850,
      "Ġsell": 2851,
      "Ġmanaged": 2852,
      "Ġchase": 2853,
      "Ġgrace": 2854,
      "Ġpicking": 2855,
      "Ġboxes": 2856,
      "Amy": 2857,
      "Ġones": 2858,
      "ested": 2859,
      "ĠPete": 2860,
      "Ġmagn": 2861,
      "Ġbuttons": 2862,
      "Ġimpressed": 2863,
      "Ġmirror": 2864,
      "Sp": 2865,
      "fic": 2866,
      "Ġter": 2867,
      "ured": 2868,
      "Ġnoisy": 2869,
      "Ġeager": 2870,
      "alous": 2871,
      "ĠDucky": 2872,
      "Ġbull": 2873,
      "body": 2874,
      "umbers": 2875,
      "Ġjealous": 2876,
      "Ġbanana": 2877,
      "Sally": 2878,
      "cient": 2879,
      "gu": 2880,
      "Ġsugg": 2881,
      "anged": 2882,
      "ĠBobby": 2883,
      "Ġskin": 2884,
      "Ġkindness": 2885,
      "Ġdiffic": 2886,
      "umbled": 2887,
      "Ġstudy": 2888,
      "Ġfigure": 2889,
      "bin": 2890,
      "fa": 2891,
      "Ġcabin": 2892,
      "Ġwealthy": 2893,
      "cil": 2894,
      "und": 2895,
      "ĠNo": 2896,
      "Ġancient": 2897,
      "Here": 2898,
      "ĠBobo": 2899,
      "Joe": 2900,
      "Ġpencil": 2901,
      "ext": 2902,
      "ique": 2903,
      "Ġwand": 2904,
      "ory": 2905,
      "Ġscare": 2906,
      "Ġmov": 2907,
      "Ġangel": 2908,
      "Ġdifficult": 2909,
      "het": 2910,
      "Ġadded": 2911,
      "Ġharm": 2912,
      "Ġpant": 2913,
      "Ġunique": 2914,
      "Ġpainting": 2915,
      "Ġlights": 2916,
      "Ġterri": 2917,
      "fast": 2918,
      "Ġicy": 2919,
      "Ġok": 2920,
      "Ġnumbers": 2921,
      "Ġshake": 2922,
      "Ġdove": 2923,
      "Ġjelly": 2924,
      "Ġyours": 2925,
      "Ġbubbles": 2926,
      "Ġsnee": 2927,
      "emo": 2928,
      "Ġdeer": 2929,
      "Ġpainted": 2930,
      "Ġgiving": 2931,
      "Ġsmoke": 2932,
      "Ġcorn": 2933,
      "Ġrode": 2934,
      "ages": 2935,
      "aghet": 2936,
      "Ġlouder": 2937,
      "Ġbreakfast": 2938,
      "olog": 2939,
      "Ġbelonged": 2940,
      "Ġrecord": 2941,
      "aghetti": 2942,
      "Re": 2943,
      "zed": 2944,
      "Ġtank": 2945,
      "Ġaunt": 2946,
      "Ġcher": 2947,
      "Ġspaghetti": 2948,
      "Ġapolog": 2949,
      "we": 2950,
      "yal": 2951,
      "Ġdull": 2952,
      "Ġhelps": 2953,
      "Ġsunfl": 2954,
      "Ġprint": 2955,
      "Ġmarble": 2956,
      "Ġsearch": 2957,
      "Ġcrayon": 2958,
      "ĠMrs": 2959,
      "ye": 2960,
      "Ġcro": 2961,
      "rag": 2962,
      "Ġpee": 2963,
      "Ġrealised": 2964,
      "Ġhats": 2965,
      "Ġsquare": 2966,
      "Ġdreams": 2967,
      "Jen": 2968,
      "Ġmelt": 2969,
      "Ġeld": 2970,
      "Ġroof": 2971,
      "keep": 2972,
      "ention": 2973,
      "ĠFred": 2974,
      "Ġtwist": 2975,
      "Ġuseful": 2976,
      "Ġshoot": 2977,
      "Ġhipp": 2978,
      "Ġrice": 2979,
      "Ġwhale": 2980,
      "ĠMummy": 2981,
      "umsy": 2982,
      "Ġagainst": 2983,
      "Ġtape": 2984,
      "Ġdreamed": 2985,
      "laimed": 2986,
      "Well": 2987,
      "Ġearth": 2988,
      "Ġfork": 2989,
      "Ġenvel": 2990,
      "Ġbuilt": 2991,
      "Ġperform": 2992,
      "Ġballoons": 2993,
      "Ġpenny": 2994,
      "Ġcheerful": 2995,
      "Ġtools": 2996,
      "Ġfre": 2997,
      "Ġfour": 2998,
      "Ġlow": 2999,
      "oop": 3000,
      "Ġnosy": 3001,
      "Ġexclaimed": 3002,
      "uddy": 3003,
      "Ġkinds": 3004,
      "arsh": 3005,
      "Ġunl": 3006,
      "ĠRed": 3007,
      "Ġbushes": 3008,
      "Ġdesk": 3009,
      "ject": 3010,
      "Ġturt": 3011,
      "Ġtoug": 3012,
      "Ġcudd": 3013,
      "ĠSn": 3014,
      "Ġabove": 3015,
      "Ġcounted": 3016,
      "Ġjuicy": 3017,
      "ĠToday": 3018,
      "Ġsquee": 3019,
      "head": 3020,
      "Ġtummy": 3021,
      "Ġloyal": 3022,
      "Ġscale": 3023,
      "Ġharder": 3024,
      "Ġbags": 3025,
      "Ġlifted": 3026,
      "Ġtiger": 3027,
      "Ġthose": 3028,
      "Ġlean": 3029,
      "ouses": 3030,
      "Ġfier": 3031,
      "Ġfavour": 3032,
      "Ġrub": 3033,
      "Ġpractice": 3034,
      "rop": 3035,
      "Ġnurse": 3036,
      "irp": 3037,
      "oph": 3038,
      "Ġcost": 3039,
      "Ġslipped": 3040,
      "berries": 3041,
      "Ġscrat": 3042,
      "oppy": 3043,
      "Ġsuit": 3044,
      "ress": 3045,
      "Ġgoose": 3046,
      "Ġstri": 3047,
      "ĠMar": 3048,
      "Ġlaw": 3049,
      "Ġthoughtful": 3050,
      "Ġdreaming": 3051,
      "Ġscreen": 3052,
      "Ġbossy": 3053,
      "ĠBlue": 3054,
      "Ġhippo": 3055,
      "pes": 3056,
      "Ġhouses": 3057,
      "omed": 3058,
      "Ġsofa": 3059,
      "Ġhappiness": 3060,
      "Ġseem": 3061,
      "Ġserious": 3062,
      "Ġindepend": 3063,
      "Ġenvelope": 3064,
      "Ġtough": 3065,
      "Ġfavourite": 3066,
      "Ġtask": 3067,
      "orge": 3068,
      "Ġyog": 3069,
      "Ġclumsy": 3070,
      "Ġknows": 3071,
      "Ġloudly": 3072,
      "Ġenjoying": 3073,
      "Ġusing": 3074,
      "Ġlaughs": 3075,
      "Ġpale": 3076,
      "upid": 3077,
      "Ġinvited": 3078,
      "Ġbounce": 3079,
      "Ġeraser": 3080,
      "Ġturtle": 3081,
      "Ġgem": 3082,
      "Ġstream": 3083,
      "Ġnotice": 3084,
      "rage": 3085,
      "Ġstove": 3086,
      "Ġrubbed": 3087,
      "Ġmarch": 3088,
      "Ġspoiled": 3089,
      "Ow": 3090,
      "oe": 3091,
      "ither": 3092,
      "amond": 3093,
      "Ġsaying": 3094,
      "Ġchar": 3095,
      "Ġshowing": 3096,
      "ĠRose": 3097,
      "Ġmeans": 3098,
      "Ġattic": 3099,
      "Ġtomato": 3100,
      "Ġstraw": 3101,
      "Ġpants": 3102,
      "Ġfierce": 3103,
      "na": 3104,
      "time": 3105,
      "wards": 3106,
      "ready": 3107,
      "Ġsoar": 3108,
      "ola": 3109,
      "Ġdiamond": 3110,
      "Ġreminded": 3111,
      "Ġwhispered": 3112,
      "vice": 3113,
      "Ġtimes": 3114,
      "ines": 3115,
      "inal": 3116,
      "Ġwake": 3117,
      "Ġjack": 3118,
      "Ġalready": 3119,
      "Ġsword": 3120,
      "Ġleaving": 3121,
      "Ġcircles": 3122,
      "Ġterrible": 3123,
      "lies": 3124,
      "Ġwashed": 3125,
      "ately": 3126,
      "Ġnorm": 3127,
      "Ġyet": 3128,
      "Ġstamp": 3129,
      "Ġlibr": 3130,
      "iable": 3131,
      "Ġcleaning": 3132,
      "Ġreliable": 3133,
      "apping": 3134,
      "Ġpirate": 3135,
      "Ġflashlight": 3136,
      "Ġsuggested": 3137,
      "Ġelderly": 3138,
      "keeper": 3139,
      "Ġindependent": 3140,
      "inary": 3141,
      "Ġcam": 3142,
      "anger": 3143,
      "iginal": 3144,
      "Ġstupid": 3145,
      "Ġplayful": 3146,
      "Ġgoat": 3147,
      "Ġext": 3148,
      "Ġmeal": 3149,
      "ĠYour": 3150,
      "ĠLittle": 3151,
      "ctus": 3152,
      "ĠNemo": 3153,
      "Ġdead": 3154,
      "Ġbrightly": 3155,
      "Ġcompass": 3156,
      "ĠTweetie": 3157,
      "Ġstubb": 3158,
      "Ġcooking": 3159,
      "Ġgasped": 3160,
      "Spot": 3161,
      "eorge": 3162,
      "etit": 3163,
      "Ġspun": 3164,
      "Ġpost": 3165,
      "Ġcheap": 3166,
      "Ġarrow": 3167,
      "Ġresc": 3168,
      "Ġnuts": 3169,
      "Ġsunflower": 3170,
      "Ġfresh": 3171,
      "Ġcards": 3172,
      "Ġstairs": 3173,
      "Ġknock": 3174,
      "ĠWhile": 3175,
      "Ġbald": 3176,
      "Ġpatch": 3177,
      "Ġcompetit": 3178,
      "Ġcactus": 3179,
      "Ġbatter": 3180,
      "Ġdelighted": 3181,
      "Ġseeds": 3182,
      "Ġdestro": 3183,
      "Ġescape": 3184,
      "Ġnormal": 3185,
      "Ġber": 3186,
      "Ġlocked": 3187,
      "Ġspace": 3188,
      "Ġoriginal": 3189,
      "Ġoffice": 3190,
      "Ġpoured": 3191,
      "Ġstubborn": 3192,
      "Ġberries": 3193,
      "See": 3194,
      "Ġbump": 3195,
      "isk": 3196,
      "Ġbeet": 3197,
      "Ġref": 3198,
      "Ġthemselves": 3199,
      "Ġbloom": 3200,
      "Ġlearning": 3201,
      "oby": 3202,
      "Ġexplored": 3203,
      "Ġzip": 3204,
      "ĠAlice": 3205,
      "Ġsuccessful": 3206,
      "Em": 3207,
      "Ġstat": 3208,
      "uring": 3209,
      "Ġsne": 3210,
      "ÅĵLet": 3211,
      "Ġjoined": 3212,
      "Ġzipp": 3213,
      "Ġprep": 3214,
      "Ġguard": 3215,
      "Ġwiped": 3216,
      "lev": 3217,
      "Ġbeak": 3218,
      "Ġstumbled": 3219,
      "Ġshone": 3220,
      "illa": 3221,
      "Ġexcitedly": 3222,
      "Ġskip": 3223,
      "Ġsniff": 3224,
      "ĠCl": 3225,
      "ipe": 3226,
      "Ġsalad": 3227,
      "Ġdolphin": 3228,
      "Ġcamera": 3229,
      "aby": 3230,
      "ndpa": 3231,
      "Ġsock": 3232,
      "Ġspilled": 3233,
      "Ġchanged": 3234,
      "Ġdelicate": 3235,
      "Ġmetal": 3236,
      "oomy": 3237,
      "Ġcircle": 3238,
      "Ġkicked": 3239,
      "Ġsolve": 3240,
      "Ġvalu": 3241,
      "Ġhelm": 3242,
      "Ġextra": 3243,
      "Ġing": 3244,
      "Ġcarp": 3245,
      "Ġways": 3246,
      "ĠPolly": 3247,
      "Ġfright": 3248,
      "Ġsearching": 3249,
      "Ġcollar": 3250,
      "Ġwarned": 3251,
      "Ġprize": 3252,
      "Ġregular": 3253,
      "com": 3254,
      "dom": 3255,
      "Ġthu": 3256,
      "Ġrep": 3257,
      "ĠWh": 3258,
      "ĠFin": 3259,
      "Ġenorm": 3260,
      "Ġdoesn": 3261,
      "Ġwindows": 3262,
      "redient": 3263,
      "Ġwrap": 3264,
      "Ġhammer": 3265,
      "Ġcompassion": 3266,
      "Ġingredient": 3267,
      "Ġenormous": 3268,
      "corn": 3269,
      "Ġcush": 3270,
      "Ġpow": 3271,
      "ilty": 3272,
      "Ġbees": 3273,
      "ief": 3274,
      "Ġcoco": 3275,
      "Ġswe": 3276,
      "Ġstranger": 3277,
      "berry": 3278,
      "ĠWhenever": 3279,
      "Ġpengu": 3280,
      "Ġguilty": 3281,
      "Ġpackage": 3282,
      "Ġimagined": 3283,
      "Ġparrot": 3284,
      "Ġadmired": 3285,
      "Ġcocoa": 3286,
      "ray": 3287,
      "Ġfu": 3288,
      "aroo": 3289,
      "atter": 3290,
      "llie": 3291,
      "Ġforth": 3292,
      "Ġotter": 3293,
      "Ġtrop": 3294,
      "Ġhandle": 3295,
      "Ġadvice": 3296,
      "âĤ¬âĢ": 3297,
      "cod": 3298,
      "Ġopens": 3299,
      "Ġsteal": 3300,
      "gging": 3301,
      "angaroo": 3302,
      "Ġimpress": 3303,
      "Ġfountain": 3304,
      "Ġfrag": 3305,
      "Ġkangaroo": 3306,
      "Ġclay": 3307,
      "ĠLook": 3308,
      "Ġbrace": 3309,
      "Ġchose": 3310,
      "Ġparade": 3311,
      "Ġvaluable": 3312,
      "Ġingredients": 3313,
      "While": 3314,
      "loo": 3315,
      "Ġstage": 3316,
      "Ġliz": 3317,
      "ĠAlex": 3318,
      "Ġcareless": 3319,
      "Ġvi": 3320,
      "Ġsett": 3321,
      "uper": 3322,
      "Ġdesign": 3323,
      "Ġcelebrate": 3324,
      "Ġcricket": 3325,
      "Ġcrocod": 3326,
      "Ġtrophy": 3327,
      "Ġbri": 3328,
      "Ġrushed": 3329,
      "Ġfinding": 3330,
      "Ġtrunk": 3331,
      "ĠPe": 3332,
      "ache": 3333,
      "Ġstops": 3334,
      "Ġpige": 3335,
      "Ġearly": 3336,
      "Ġthinking": 3337,
      "Ġpopcorn": 3338,
      "Ġmovie": 3339,
      "Ġson": 3340,
      "Ġcity": 3341,
      "Ġgum": 3342,
      "Ġnature": 3343,
      "Ġthirst": 3344,
      "Ġhero": 3345,
      "!\".": 3346,
      "Ġleop": 3347,
      "Ġenv": 3348,
      "Ġboats": 3349,
      "Ġcomplet": 3350,
      "Ġshape": 3351,
      "Ġcandle": 3352,
      "Ġgraceful": 3353,
      "Ġdestroy": 3354,
      "Ġstatue": 3355,
      "Ġflex": 3356,
      "ĠBuddy": 3357,
      "alk": 3358,
      "apa": 3359,
      "Ġtrump": 3360,
      "Ġtravel": 3361,
      "Ġstickers": 3362,
      "Ġcounting": 3363,
      "Ġsparkled": 3364,
      "Ġhumble": 3365,
      "Ġbeetle": 3366,
      "Ġbarn": 3367,
      "igent": 3368,
      "ĠFr": 3369,
      "Ġintell": 3370,
      "Ġimpat": 3371,
      "Ġtowers": 3372,
      "Ġbelt": 3373,
      "ations": 3374,
      "Ġbarber": 3375,
      "Ġspring": 3376,
      "Ġpeeked": 3377,
      "Ġcharming": 3378,
      "Ġfrightened": 3379,
      "Ġthirsty": 3380,
      "Ġtied": 3381,
      "Ġlaser": 3382,
      "arian": 3383,
      "Ġnames": 3384,
      "Ġpepper": 3385,
      "Ġenc": 3386,
      "ement": 3387,
      "Ġarg": 3388,
      "Ġreading": 3389,
      "Ġveil": 3390,
      "Ġobject": 3391,
      "Ġfingers": 3392,
      "Ġtoast": 3393,
      "Ġhive": 3394,
      "Ġwaff": 3395,
      "Ġled": 3396,
      "Ġload": 3397,
      "Ġeng": 3398,
      "Ġmaze": 3399,
      "Ġperm": 3400,
      "Ġrestaur": 3401,
      "Ġresist": 3402,
      "Ġhurry": 3403,
      "Ġmagnet": 3404,
      "Ġfragile": 3405,
      "Ġflexible": 3406,
      "Ġimpatient": 3407,
      "Ġrestaurant": 3408,
      "Ġmis": 3409,
      "Ġshark": 3410,
      "Ġrece": 3411,
      "Ġraced": 3412,
      "Ġhairy": 3413,
      "Ġsleeping": 3414,
      "Ġmissing": 3415,
      "Ġquestion": 3416,
      "Ġlizard": 3417,
      "Ġintelligent": 3418,
      "gust": 3419,
      "Ġhay": 3420,
      "Ġrug": 3421,
      "Ġrefused": 3422,
      "Ġolder": 3423,
      "Ġclock": 3424,
      "Ġcomb": 3425,
      "Ġdeliver": 3426,
      "Ġpilot": 3427,
      "Ġcarpet": 3428,
      "Ġsym": 3429,
      "Ġtooth": 3430,
      "Ġbin": 3431,
      "ince": 3432,
      "Ġph": 3433,
      "Ġur": 3434,
      "Ġalert": 3435,
      "robe": 3436,
      "Ġproudly": 3437,
      "Ġdisgust": 3438,
      "Ġtelling": 3439,
      "Ġcrocodile": 3440,
      "Ġtrumpet": 3441,
      "eer": 3442,
      "Ġsudden": 3443,
      "Ġhedge": 3444,
      "Ġped": 3445,
      "ision": 3446,
      "ĠSm": 3447,
      "anny": 3448,
      "orant": 3449,
      "llip": 3450,
      "Ġreind": 3451,
      "ict": 3452,
      "iches": 3453,
      "Ġfriendship": 3454,
      "Ġmem": 3455,
      "Ġpebble": 3456,
      "Ġmoder": 3457,
      "cycle": 3458,
      "Ġrespectful": 3459,
      "Ġbracelet": 3460,
      "Ġpigeon": 3461,
      "llipop": 3462,
      "awn": 3463,
      "cu": 3464,
      "Ġsend": 3465,
      "Ġmay": 3466,
      "Ġpurse": 3467,
      "Ġhalf": 3468,
      "Ġthief": 3469,
      "Ġbean": 3470,
      "Ġlollipop": 3471,
      "Ġimpro": 3472,
      "Ġunk": 3473,
      "bol": 3474,
      "Ġhung": 3475,
      "Ġgrowing": 3476,
      "Ġpotato": 3477,
      "Ġordinary": 3478,
      "Ġimpressive": 3479,
      "Ġreindeer": 3480,
      "gest": 3481,
      "iv": 3482,
      "Ġax": 3483,
      "Ġpump": 3484,
      "Ġstation": 3485,
      "Ġbiggest": 3486,
      "Ġjug": 3487,
      "Ġmush": 3488,
      "ĠElla": 3489,
      "Ġsorts": 3490,
      "ÅĵYes": 3491,
      "Ġtrains": 3492,
      "Ġrules": 3493,
      "Ġwheat": 3494,
      "Ġmailbox": 3495,
      "Ġcostum": 3496,
      "Ġsymbol": 3497,
      "Ġmodern": 3498,
      "Ġmushroom": 3499,
      "Ġdug": 3500,
      "Ġshiver": 3501,
      "Ġbirdie": 3502,
      "Ġflour": 3503,
      "Ġending": 3504,
      "Ġtrash": 3505,
      "Ġholds": 3506,
      "ĠKim": 3507,
      "Ġattract": 3508,
      "host": 3509,
      "Ġdiscover": 3510,
      "Ġfootball": 3511,
      "ÅĵLetÃ¢": 3512,
      "comfort": 3513,
      "nown": 3514,
      "Ġwitch": 3515,
      "Ġbase": 3516,
      "Ġgor": 3517,
      "Ġumb": 3518,
      "Ġrepe": 3519,
      "Ġallowed": 3520,
      "Ġleash": 3521,
      "Ġchain": 3522,
      "Ġhose": 3523,
      "Ġcats": 3524,
      "Ġunpack": 3525,
      "Ġbreat": 3526,
      "Ġbrothers": 3527,
      "Ġsandwiches": 3528,
      "Ġignorant": 3529,
      "Ġharmless": 3530,
      "Ġumbre": 3531,
      "cope": 3532,
      "Ġtur": 3533,
      "Ġtem": 3534,
      "Ġwing": 3535,
      "Ġmop": 3536,
      "Ġoat": 3537,
      "Ġshocked": 3538,
      "ĠMike": 3539,
      "ugged": 3540,
      "iew": 3541,
      "used": 3542,
      "ÅĵIt": 3543,
      "Ġuncomfort": 3544,
      "Ġcrazy": 3545,
      "Ġsurf": 3546,
      "Ġuncomfortable": 3547,
      "Go": 3548,
      "bled": 3549,
      "Ġcur": 3550,
      "Ġmask": 3551,
      "ĠDave": 3552,
      "Ġview": 3553,
      "Ġraven": 3554,
      "ÅĵWhat": 3555,
      "Ġpersist": 3556,
      "Ġslides": 3557,
      "ĠSnow": 3558,
      "Ġjacket": 3559,
      "Ġenvious": 3560,
      "Ġencou": 3561,
      "io": 3562,
      "Ġsuper": 3563,
      "Ġghost": 3564,
      "Ġsauce": 3565,
      "imney": 3566,
      "Ġshield": 3567,
      "Ġanx": 3568,
      "ĠAre": 3569,
      "opus": 3570,
      "Ġscatter": 3571,
      "Ġstarts": 3572,
      "Ġchimney": 3573,
      "ctopus": 3574,
      "ÅĵThat": 3575,
      "Ġbrighter": 3576,
      "Ġshoe": 3577,
      "Ġplaced": 3578,
      "Ġspoke": 3579,
      "Ġfilm": 3580,
      "Ġcompassionate": 3581,
      "Ġaxe": 3582,
      "Ġgorilla": 3583,
      "Ġturkey": 3584,
      "ĠToby": 3585,
      "Ġoctopus": 3586,
      "Ġnail": 3587,
      "ecause": 3588,
      "Ġlab": 3589,
      "Ġtray": 3590,
      "Ġsnuggled": 3591,
      "ĠPapa": 3592,
      "Ġpainter": 3593,
      "Ġcardboard": 3594,
      "Ġspeed": 3595,
      "Ġavo": 3596,
      "Ġhunter": 3597,
      "Ġthunder": 3598,
      "Ġharsh": 3599,
      "Ġcamp": 3600,
      "Ġguit": 3601,
      "Ġyawn": 3602,
      "aled": 3603,
      "Ġreco": 3604,
      "tern": 3605,
      "Ġlistening": 3606,
      "Ġshells": 3607,
      "iskers": 3608,
      "Ġleopard": 3609,
      "Ġphot": 3610,
      "Ġdisgusting": 3611,
      "Ġwire": 3612,
      "Ġbeep": 3613,
      "ado": 3614,
      "htub": 3615,
      "Ġchasing": 3616,
      "Ġvest": 3617,
      "Ġanywhere": 3618,
      "Ġcreate": 3619,
      "Ġsquash": 3620,
      "Ġbutterflies": 3621,
      "Ġmicrop": 3622,
      "Ġsilver": 3623,
      "ophie": 3624,
      "Ġviol": 3625,
      "Ġengine": 3626,
      "ĠSmith": 3627,
      "Ġmicrophone": 3628,
      "gn": 3629,
      "ience": 3630,
      "rn": 3631,
      "render": 3632,
      "Ġcell": 3633,
      "Ġgoal": 3634,
      "Ġvine": 3635,
      "Ġtrap": 3636,
      "Ġjolly": 3637,
      "Ġacorn": 3638,
      "Ġtricks": 3639,
      "Ġcooler": 3640,
      "osie": 3641,
      "Ġbathtub": 3642,
      "Ġcarrying": 3643,
      "Ġanxious": 3644,
      "Ġmill": 3645,
      "Ġneat": 3646,
      "Ġnicely": 3647,
      "Ġcreatures": 3648,
      "Ġenth": 3649,
      "Ġstirred": 3650,
      "Ġdecorate": 3651,
      "Ġwishes": 3652,
      "Ġhelmet": 3653,
      "Ġunknown": 3654,
      "ud": 3655,
      "Ġtire": 3656,
      "Ġtoil": 3657,
      "Ġoy": 3658,
      "iron": 3659,
      "Ġdrawer": 3660,
      "Ġswinging": 3661,
      "Ġwheels": 3662,
      "Ġsurrender": 3663,
      "Alice": 3664,
      "Ġviolin": 3665,
      "Give": 3666,
      "Yay": 3667,
      "ikes": 3668,
      "Ġahead": 3669,
      "Ġsink": 3670,
      "Ġbent": 3671,
      "Ġfat": 3672,
      "ĠTr": 3673,
      "imi": 3674,
      "ĠHere": 3675,
      "ric": 3676,
      "Ġseco": 3677,
      "Ġcrow": 3678,
      "Ġpiano": 3679,
      "ĠGrandpa": 3680,
      "Ġletters": 3681,
      "Ġorganize": 3682,
      "Ġstretched": 3683,
      "Ġmotorcycle": 3684,
      "Ġattractive": 3685,
      "Ġpersistent": 3686,
      "Ġenthus": 3687,
      "Ġsecond": 3688,
      "noon": 3689,
      "ĠU": 3690,
      "Ġhook": 3691,
      "Ġgir": 3692,
      "Ġshine": 3693,
      "Ġshort": 3694,
      "Ġshaking": 3695,
      "Ġsadly": 3696,
      "Ġputting": 3697,
      "ĠcouldnÃ¢": 3698,
      "Ġbadly": 3699,
      "Ġuncle": 3700,
      "Ġafternoon": 3701,
      "Ġpretending": 3702,
      "Ġdistant": 3703,
      "Ġpracticed": 3704,
      "Ġtwirled": 3705,
      "Ġzipper": 3706,
      "Ġcushion": 3707,
      "Ġumbrella": 3708,
      "Mary": 3709,
      "gs": 3710,
      "Ġoak": 3711,
      "Ġgym": 3712,
      "icop": 3713,
      "Ġgloomy": 3714,
      "Ġshouts": 3715,
      "Ġforgave": 3716,
      "Ġbehave": 3717,
      "Ġtrick": 3718,
      "Ġpattern": 3719,
      "Ġsailor": 3720,
      "Ġgifted": 3721,
      "Ġbandage": 3722,
      "Ġpasta": 3723,
      "Ġhelicop": 3724,
      "ĠWhiskers": 3725,
      "Ġrecogn": 3726,
      "Ġhelicopter": 3727,
      "ef": 3728,
      "ses": 3729,
      "Ġbicy": 3730,
      "Ġitself": 3731,
      "Ġshel": 3732,
      "ices": 3733,
      "ĠJerry": 3734,
      "Ġneedle": 3735,
      "Ġbeauty": 3736,
      "Ġjumps": 3737,
      "Ġmessage": 3738,
      "Ġcrane": 3739,
      "lcano": 3740,
      "Ġneighbour": 3741,
      "Ġguitar": 3742,
      "Ġten": 3743,
      "uth": 3744,
      "urb": 3745,
      "Ġlaund": 3746,
      "ĠLola": 3747,
      "ips": 3748,
      "ĠGive": 3749,
      "Ġcourage": 3750,
      "Ġpulls": 3751,
      "Ġdriving": 3752,
      "ggy": 3753,
      "Ġmonkeys": 3754,
      "Ġdisturb": 3755,
      "cream": 3756,
      "ocer": 3757,
      "ubby": 3758,
      "Ġwife": 3759,
      "erable": 3760,
      "arry": 3761,
      "ĠMark": 3762,
      "Ġhelpless": 3763,
      "Ġchubby": 3764,
      "Ġpole": 3765,
      "Ġquite": 3766,
      "Ġlions": 3767,
      "Ġscrew": 3768,
      "hinocer": 3769,
      "Ġtoilet": 3770,
      "hinoceros": 3771,
      "Bye": 3772,
      "ron": 3773,
      "ites": 3774,
      "Ġshade": 3775,
      "Ġcane": 3776,
      "ĠWhere": 3777,
      "ĠEventually": 3778,
      "Ġpeek": 3779,
      "Ġpup": 3780,
      "Ġtrack": 3781,
      "Ġjokes": 3782,
      "aches": 3783,
      "Ġgiggle": 3784,
      "Ġbarks": 3785,
      "Ġmiserable": 3786,
      "ĠSnowy": 3787,
      "Ġlaundry": 3788,
      "zzy": 3789,
      "Ġsent": 3790,
      "Ġhoop": 3791,
      "Ġcere": 3792,
      "Ġpad": 3793,
      "Ġpine": 3794,
      "Ġins": 3795,
      "Ġshut": 3796,
      "Ġrose": 3797,
      "Ġfinds": 3798,
      "Ġholes": 3799,
      "Ġclimbing": 3800,
      "ĠGeorge": 3801,
      "Ġfireman": 3802,
      "ailable": 3803,
      "Ġfearful": 3804,
      "..": 3805,
      "Little": 3806,
      "gen": 3807,
      "hood": 3808,
      "year": 3809,
      "Ġsize": 3810,
      "Ġrhinoceros": 3811,
      "Ġreef": 3812,
      "Ġscold": 3813,
      "Ġroared": 3814,
      "ucked": 3815,
      "Ġtap": 3816,
      "Ġpeach": 3817,
      "Ġtear": 3818,
      "Ġsoftly": 3819,
      "Ġpapers": 3820,
      "Ġsupport": 3821,
      "Ġsteps": 3822,
      "Ġavailable": 3823,
      "Ġbicycle": 3824,
      "ci": 3825,
      "ffe": 3826,
      "shed": 3827,
      "te": 3828,
      "Ġaw": 3829,
      "Ġdust": 3830,
      "Ġdess": 3831,
      "Ġeither": 3832,
      "seum": 3833,
      "ills": 3834,
      "ummer": 3835,
      "Ġchance": 3836,
      "Ġsticker": 3837,
      "ĠKate": 3838,
      "Ġpoint": 3839,
      "Ġadmire": 3840,
      "ĠMaria": 3841,
      "Ġlibrary": 3842,
      "Ġcompetitive": 3843,
      "Ġrepair": 3844,
      "ffee": 3845,
      "cast": 3846,
      "ccol": 3847,
      "Ġcurt": 3848,
      "Ġink": 3849,
      "Ġrag": 3850,
      "Ġstack": 3851,
      "Ġstared": 3852,
      "ceed": 3853,
      "Ġfort": 3854,
      "Ġtruth": 3855,
      "Ġener": 3856,
      "Ġglove": 3857,
      "ĠRosie": 3858,
      "Ġcountry": 3859,
      "Ġjourn": 3860,
      "Ġradio": 3861,
      "Grandma": 3862,
      "ĠBrownie": 3863,
      "Ġfrowned": 3864,
      "ccoli": 3865,
      "Ġcurtain": 3866,
      "Ġiron": 3867,
      "Ġbet": 3868,
      "erc": 3869,
      "Ġmild": 3870,
      "stairs": 3871,
      "Ġnote": 3872,
      "illie": 3873,
      "Ġprun": 3874,
      "Ġmuseum": 3875,
      "Ġanyway": 3876,
      "Ġorder": 3877,
      "Ġcompl": 3878,
      "Ġcheek": 3879,
      "Ġvolcano": 3880,
      "Ġpushes": 3881,
      "ĠJoey": 3882,
      "Ġvisited": 3883,
      "Ġcupboard": 3884,
      "Ġtreasures": 3885,
      "Ġtroubled": 3886,
      "Ġbounced": 3887,
      "Ġriding": 3888,
      "Jenny": 3889,
      "Ġdessert": 3890,
      "oot": 3891,
      "Ġdive": 3892,
      "irit": 3893,
      "ckey": 3894,
      "ooped": 3895,
      "Ġreve": 3896,
      "Ġboots": 3897,
      "ĠWould": 3898,
      "Ġgrapes": 3899,
      "Ġhockey": 3900,
      "sely": 3901,
      "Ġdishes": 3902,
      "Ġappl": 3903,
      "Ġappre": 3904,
      "Ġsandcast": 3905,
      "Ġbreaks": 3906,
      "Ġcups": 3907,
      "Ġshopkeeper": 3908,
      "Ġpopular": 3909,
      "Ġspeak": 3910,
      "Ġjournal": 3911,
      "Because": 3912,
      "cut": 3913,
      "ibb": 3914,
      "Ġstrugg": 3915,
      "Ġpowder": 3916,
      "Ġappreci": 3917,
      "ĠSh": 3918,
      "Ġexerc": 3919,
      "Ġclapping": 3920,
      "Ġcoffee": 3921,
      "Ġhanded": 3922,
      "uct": 3923,
      "Ġnowhere": 3924,
      "Ġdisag": 3925,
      "Ġdeaf": 3926,
      "Ġart": 3927,
      "Ġzeb": 3928,
      "Ġrubb": 3929,
      "Ġmixer": 3930,
      "Ġcolours": 3931,
      "Ġgrabs": 3932,
      "Ġsucceed": 3933,
      "Ġspinning": 3934,
      "Ġstretch": 3935,
      "Ġzebra": 3936,
      "eath": 3937,
      "lb": 3938,
      "night": 3939,
      "Ġhut": 3940,
      "Ġfurt": 3941,
      "Ġdough": 3942,
      "Ġpun": 3943,
      "Ġpage": 3944,
      "orable": 3945,
      "Ġhappier": 3946,
      "Ġkay": 3947,
      "ĠMimi": 3948,
      "Ġspirit": 3949,
      "Ġbackpack": 3950,
      "Ġswamp": 3951,
      "Ġclosely": 3952,
      "Ġbulb": 3953,
      "Ġchecked": 3954,
      "Ġbroccoli": 3955,
      "Ġhoping": 3956,
      "Ġsalt": 3957,
      "Ġmodest": 3958,
      "Ġcomplete": 3959,
      "Ġants": 3960,
      "anic": 3961,
      "ĠHelp": 3962,
      "Ġseal": 3963,
      "Ġjet": 3964,
      "play": 3965,
      "Ġslipp": 3966,
      "ĠAndy": 3967,
      "Ġgiven": 3968,
      "Ġchickens": 3969,
      "Ġcartoon": 3970,
      "Ġrescue": 3971,
      "Ġsneak": 3972,
      "Ġcereal": 3973,
      "Ġinsist": 3974,
      "Ġsummer": 3975,
      "inking": 3976,
      "Ġpony": 3977,
      "ĠTony": 3978,
      "chanic": 3979,
      "Ġmechanic": 3980,
      "Ġadorable": 3981,
      "Ġdisplay": 3982,
      "Ġtripped": 3983,
      "Ġlands": 3984,
      "Ġdiary": 3985,
      "Ġstuffed": 3986,
      "Ġfurther": 3987,
      "par": 3988,
      "Ġtorn": 3989,
      "Ġmen": 3990,
      "kelet": 3991,
      "Ġweep": 3992,
      "Ġshadow": 3993,
      "Ġsepar": 3994,
      "Ġspell": 3995,
      "Benny": 3996,
      "Ġframe": 3997,
      "Ġairport": 3998,
      "Ġwallet": 3999,
      "ĠRemy": 4000,
      "Ġshrimp": 4001,
      "Ġbalan": 4002,
      "Ġpaws": 4003,
      "Ġfilthy": 4004,
      "Ġsweater": 4005,
      "Ġfive": 4006,
      "ison": 4007,
      "arnt": 4008,
      "Ġherb": 4009,
      "ament": 4010,
      "Ġhadn": 4011,
      "stic": 4012,
      "elery": 4013,
      "Ġlearnt": 4014,
      "ĠEverything": 4015,
      "Ġfrogs": 4016,
      "ĠGrace": 4017,
      "Ġlemonade": 4018,
      "âĤ¬âĢľ": 4019,
      "iest": 4020,
      "Ġtheater": 4021,
      "Ġlang": 4022,
      "Ġweather": 4023,
      "Ġnoteb": 4024,
      "Ġstarting": 4025,
      "iastic": 4026,
      "Ġbubble": 4027,
      "Ġdancer": 4028,
      "Ġhopes": 4029,
      "Ġdrops": 4030,
      "Ġenthusiastic": 4031,
      "Ġlangu": 4032,
      "Ġnotebook": 4033,
      "ser": 4034,
      "ube": 4035,
      "Ġskelet": 4036,
      "Ġsomewhere": 4037,
      "Ġopera": 4038,
      "Ġraft": 4039,
      "Ġshouldn": 4040,
      "ĠRo": 4041,
      "Ġpushing": 4042,
      "Ġmarched": 4043,
      "Ġtemp": 4044,
      "Ġwool": 4045,
      "Ġbikes": 4046,
      "Ġsaus": 4047,
      "Ġgolf": 4048,
      "Ġmuff": 4049,
      "Ġquar": 4050,
      "ĠdonÃ¢": 4051,
      "Ġteleph": 4052,
      "astic": 4053,
      "Ġcryst": 4054,
      "Ġdrawings": 4055,
      "Ġpressed": 4056,
      "Ġrolling": 4057,
      "Ġincl": 4058,
      "Ġzoomed": 4059,
      "Ġunlock": 4060,
      "Ġtelephone": 4061,
      "nament": 4062,
      "Ġlid": 4063,
      "any": 4064,
      "ĠBear": 4065,
      "Ġreward": 4066,
      "Ġallig": 4067,
      "Ġmeas": 4068,
      "Ġornament": 4069,
      "Ġended": 4070,
      "Ġraining": 4071,
      "Ġhaircut": 4072,
      "Ġsplit": 4073,
      "Ġcomput": 4074,
      "Ġpolish": 4075,
      "Ġpaid": 4076,
      "Ġprov": 4077,
      "Ġmistakes": 4078,
      "Ġcooked": 4079,
      "Ġoyster": 4080,
      "yer": 4081,
      "heart": 4082,
      "Ġcomet": 4083,
      "Ġpair": 4084,
      "Ġol": 4085,
      "Ġnobody": 4086,
      "Ġsmells": 4087,
      "Ġattach": 4088,
      "Ġpirates": 4089,
      "Ġcrib": 4090,
      "Ġskeleton": 4091,
      "aked": 4092,
      "loe": 4093,
      "Ġtube": 4094,
      "Ġhar": 4095,
      "Ġwags": 4096,
      "Ġluck": 4097,
      "Ġstom": 4098,
      "Ġswung": 4099,
      "Ġsort": 4100,
      "ected": 4101,
      "Ġcounter": 4102,
      "Ġmarry": 4103,
      "Ġexper": 4104,
      "Ġvalue": 4105,
      "Ġaccepted": 4106,
      "Ġleaned": 4107,
      "ges": 4108,
      "ĠSandy": 4109,
      "una": 4110,
      "Ġmeat": 4111,
      "Ġcube": 4112,
      "Ġuniver": 4113,
      "Ġdiscu": 4114,
      "Ġrestless": 4115,
      "ctory": 4116,
      "Ġnapkin": 4117,
      "Ġthrowing": 4118,
      "Ġpresents": 4119,
      "Ġpassport": 4120,
      "Ġbarking": 4121,
      "Ġhuman": 4122,
      "Ġkayak": 4123,
      "Ġcelery": 4124,
      "Ġpor": 4125,
      "ĠitÃ¢": 4126,
      "Ġthumb": 4127,
      "Ġfactory": 4128,
      "Ġunh": 4129,
      "Ġthanks": 4130,
      "Ġthread": 4131,
      "Ġthrows": 4132,
      "Ġobser": 4133,
      "Ġpinch": 4134,
      "Ġsoldier": 4135,
      "If": 4136,
      "come": 4137,
      "Ġmama": 4138,
      "Ġrot": 4139,
      "Ġknob": 4140,
      "Ġfeelings": 4141,
      "ĠdidnÃ¢": 4142,
      "aud": 4143,
      "inky": 4144,
      "Ġsandbox": 4145,
      "Ġimagination": 4146,
      "Ġsupply": 4147,
      "affe": 4148,
      "Ġfishing": 4149,
      "Ġlawyer": 4150,
      "Ġalligator": 4151,
      "ler": 4152,
      "was": 4153,
      "inarian": 4154,
      "Ġlend": 4155,
      "Ġwaste": 4156,
      "ĠSee": 4157,
      "Ġyach": 4158,
      "Ġribb": 4159,
      "icer": 4160,
      "Ġknot": 4161,
      "Ġfauc": 4162,
      "Ġfalling": 4163,
      "eterinarian": 4164,
      "Ġbelongs": 4165,
      "arlie": 4166,
      "Ġdishwas": 4167,
      "Ġenergy": 4168,
      "Ġslippery": 4169,
      "Ġfaucet": 4170,
      "Ġdishwasher": 4171,
      "tress": 4172,
      "Ġsle": 4173,
      "Ġsir": 4174,
      "iling": 4175,
      "Ġonion": 4176,
      "hero": 4177,
      "Ġkitty": 4178,
      "Ġnews": 4179,
      "Ġveterinarian": 4180,
      "Ġshoulder": 4181,
      "Ġmattress": 4182,
      "Together": 4183,
      "Ġsuperhero": 4184,
      "Ġshelter": 4185,
      "Ġapplaud": 4186,
      "Ġyacht": 4187,
      "azz": 4188,
      "drobe": 4189,
      "Ġfurn": 4190,
      "iture": 4191,
      "Ġlumber": 4192,
      "Ġhall": 4193,
      "stead": 4194,
      "ĠBet": 4195,
      "ĠBaby": 4196,
      "Ġalarm": 4197,
      "ĠWill": 4198,
      "Ġchirp": 4199,
      "Ġpoked": 4200,
      "Ġpoem": 4201,
      "Ġfields": 4202,
      "Ġsigns": 4203,
      "Ġwinter": 4204,
      "Ġwardrobe": 4205,
      "Ġcelebrated": 4206,
      "Ġglowing": 4207,
      "Ġapologized": 4208,
      "Ġfuel": 4209,
      "Ġwaffle": 4210,
      "Ġimprove": 4211,
      "Ġavoc": 4212,
      "Ġgiraffe": 4213,
      "Ġquarrel": 4214,
      "Ġfurniture": 4215,
      "bor": 4216,
      "ium": 4217,
      "lid": 4218,
      "Ġpand": 4219,
      "Ġvide": 4220,
      "Ġpoke": 4221,
      "bbie": 4222,
      "Ġfog": 4223,
      "Ġsweetheart": 4224,
      "Everyone": 4225,
      "Ġunhappy": 4226,
      "gie": 4227,
      "sit": 4228,
      "Ġsuff": 4229,
      "edy": 4230,
      "Ġbur": 4231,
      "Ġfle": 4232,
      "ising": 4233,
      "ĠSophie": 4234,
      "Ġflies": 4235,
      "Ġcham": 4236,
      "place": 4237,
      "ÅĵYou": 4238,
      "ĠPat": 4239,
      "Ġpress": 4240,
      "Ġvend": 4241,
      "Ġattention": 4242,
      "ipping": 4243,
      "Ġjeep": 4244,
      "Ġchairs": 4245,
      "Ġwipe": 4246,
      "Ġregret": 4247,
      "ween": 4248,
      "Ġcostume": 4249,
      "Ġbaseball": 4250,
      "Ġbetween": 4251,
      "Ġtut": 4252,
      "Ġtherm": 4253,
      "Ġplayer": 4254,
      "Ġshakes": 4255,
      "ometer": 4256,
      "Ġworth": 4257,
      "Ġswitch": 4258,
      "Ġvroom": 4259,
      "Ġholid": 4260,
      "Ġexplain": 4261,
      "Ġfollows": 4262,
      "ĠNext": 4263,
      "Ġlightning": 4264,
      "Ġpoints": 4265,
      "Ġperfectly": 4266,
      "Ġgolden": 4267,
      "Ġexamine": 4268,
      "Ġpenguin": 4269,
      "Ġphoto": 4270,
      "Ġharbor": 4271,
      "Ġthermometer": 4272,
      "Ġholiday": 4273,
      "az": 4274,
      "bul": 4275,
      "scope": 4276,
      "Ġble": 4277,
      "inked": 4278,
      "Ġgro": 4279,
      "Ġinf": 4280,
      "utty": 4281,
      "Ġsoil": 4282,
      "Ġrever": 4283,
      "Ġmakeup": 4284,
      "roscope": 4285,
      "Ġgrin": 4286,
      "reeze": 4287,
      "Ġblueberries": 4288,
      "Ġmarried": 4289,
      "Ġimagine": 4290,
      "Ġcows": 4291,
      "Ġflutter": 4292,
      "Ġlively": 4293,
      "Ġblowing": 4294,
      "Ġmicroscope": 4295,
      "Ch": 4296,
      "Next": 4297,
      "aff": 4298,
      "Ġtub": 4299,
      "Ġpipe": 4300,
      "chair": 4301,
      "ores": 4302,
      "Ġclub": 4303,
      "Ġdoggy": 4304,
      "Ġlotion": 4305,
      "mand": 4306,
      "Ġsunset": 4307,
      "Ġbuzz": 4308,
      "Ġwriting": 4309,
      "Ġpetals": 4310,
      "Inside": 4311,
      "Ġcomputer": 4312,
      "Ġporch": 4313,
      "Ann": 4314,
      "ccer": 4315,
      "lass": 4316,
      "ues": 4317,
      "Ġpra": 4318,
      "Ġpur": 4319,
      "ories": 4320,
      "Ġinse": 4321,
      "Ġsoccer": 4322,
      "Ġseas": 4323,
      "Ġspear": 4324,
      "Ġknown": 4325,
      "ssible": 4326,
      "Ġpear": 4327,
      "ups": 4328,
      "Ġkingdom": 4329,
      "Ġsplashing": 4330,
      "Ġburned": 4331,
      "Ġstraight": 4332,
      "Ġhanging": 4333,
      "Ġcabinet": 4334,
      "ĠClara": 4335,
      "Ġscolded": 4336,
      "Ġcrystal": 4337,
      "Ġvendor": 4338,
      "Daisy": 4339,
      "Fl": 4340,
      "Ġcree": 4341,
      "ense": 4342,
      "Ġstro": 4343,
      "Ġlives": 4344,
      "icle": 4345,
      "Ġevening": 4346,
      "Ġfiref": 4347,
      "Ġwhistling": 4348,
      "ĠBubbles": 4349,
      "Ġrelaxed": 4350,
      "Ġyoga": 4351,
      "Ġprepare": 4352,
      "Ġpumpkin": 4353,
      "Ġcreek": 4354,
      "Jim": 4355,
      "Ġweigh": 4356,
      "ĠBill": 4357,
      "Ġsung": 4358,
      "Ġappro": 4359,
      "ngth": 4360,
      "Ġarmchair": 4361,
      "Ġjudge": 4362,
      "Ġelephants": 4363,
      "Ġstrength": 4364,
      "Ġbathe": 4365,
      "Ġapron": 4366,
      "Ġbananas": 4367,
      "Ġcrossed": 4368,
      "tain": 4369,
      "ero": 4370,
      "Ġmug": 4371,
      "Ġmath": 4372,
      "Ġpalm": 4373,
      "atie": 4374,
      "Ġplays": 4375,
      "Ġlie": 4376,
      "Ġhappens": 4377,
      "Ġisn": 4378,
      "Ġhelper": 4379,
      "Ġmule": 4380,
      "Ġblinked": 4381,
      "Ġtrail": 4382,
      "Ġfireplace": 4383,
      "ĠInstead": 4384,
      "Ġcreated": 4385,
      "Ġsquirrels": 4386,
      "Ġbarrel": 4387,
      "Ġbasketball": 4388,
      "Ġpuzzles": 4389,
      "Ġkisses": 4390,
      "Ġsurround": 4391,
      "Ġeagerly": 4392,
      "ĠGod": 4393,
      "Ġserve": 4394,
      "Ġsneeze": 4395,
      "Ġcherry": 4396,
      "Ġtutor": 4397,
      "men": 4398,
      "rs": 4399,
      "Ġtucked": 4400,
      "Ġsigh": 4401,
      "Ġcase": 4402,
      "ĠTed": 4403,
      "omes": 4404,
      "chie": 4405,
      "Ġflame": 4406,
      "Ġflapped": 4407,
      "ĠEllie": 4408,
      "Ġgreedy": 4409,
      "Ġbury": 4410,
      "izes": 4411,
      "Ġunif": 4412,
      "aces": 4413,
      "Ġbelow": 4414,
      "Ġtriang": 4415,
      "anges": 4416,
      "Ġwelcomed": 4417,
      "Ġtrusted": 4418,
      "Ġfolder": 4419,
      "Ġsprayed": 4420,
      "Emma": 4421,
      "Ġmemories": 4422,
      "Ġexercise": 4423,
      "ah": 4424,
      "lier": 4425,
      "Ġport": 4426,
      "Ġrake": 4427,
      "rich": 4428,
      "Ġplastic": 4429,
      "indy": 4430,
      "Ġclaw": 4431,
      "Ġscoot": 4432,
      "rod": 4433,
      "Ġintrod": 4434,
      "ionary": 4435,
      "ction": 4436,
      "ĠPaul": 4437,
      "Ġdelay": 4438,
      "Ġshouting": 4439,
      "Ġbaking": 4440,
      "Ġceiling": 4441,
      "ĠAnnie": 4442,
      "Ġwandered": 4443,
      "ĠBuzz": 4444,
      "achel": 4445,
      "Ġrepeat": 4446,
      "lasses": 4447,
      "Ġsunglasses": 4448,
      "Ġuniform": 4449,
      "Is": 4450,
      "ait": 4451,
      "ring": 4452,
      "rise": 4453,
      "zor": 4454,
      "Ġfought": 4455,
      "Ġost": 4456,
      "Ġstad": 4457,
      "Ġsheet": 4458,
      "ĠBunny": 4459,
      "Ġrequ": 4460,
      "Ġreaches": 4461,
      "fume": 4462,
      "Ġspade": 4463,
      "Your": 4464,
      "Ġagre": 4465,
      "Ġshower": 4466,
      "Ġskills": 4467,
      "Ġbears": 4468,
      "Ġoffer": 4469,
      "Ġrazor": 4470,
      "Ġdear": 4471,
      "Ġperfume": 4472,
      "Ġparent": 4473,
      "Ġforgotten": 4474,
      "Ġquietly": 4475,
      "Ġtuna": 4476,
      "Today": 4477,
      "Ġrefre": 4478,
      "ictionary": 4479,
      "Ġlanguage": 4480,
      "Ġgrocer": 4481,
      "Ġstadium": 4482,
      "ives": 4483,
      "Ġig": 4484,
      "Ġsince": 4485,
      "Ġbreeze": 4486,
      "Ġdictionary": 4487,
      "Ġoil": 4488,
      "Ġyield": 4489,
      "Ġrise": 4490,
      "Ġlicks": 4491,
      "aggie": 4492,
      "ĠRu": 4493,
      "Ġambul": 4494,
      "Ġdressed": 4495,
      "Ġfirework": 4496,
      "Ġsailing": 4497,
      "Ġspoons": 4498,
      "Ġstud": 4499,
      "Ġpuddles": 4500,
      "Ġshrink": 4501,
      "Ġminute": 4502,
      "Ġbricks": 4503,
      "Ġchamber": 4504,
      "Ġinsect": 4505,
      "Ġostrich": 4506,
      "Ġigloo": 4507,
      "Ġambulance": 4508,
      "Qu": 4509,
      "eve": 4510,
      "nger": 4511,
      "aring": 4512,
      "ĠIÃ¢": 4513,
      "Ġalive": 4514,
      "Ġgrill": 4515,
      "Ġhurting": 4516,
      "Ġshovel": 4517,
      "Ġgrowled": 4518,
      "Ġsub": 4519,
      "Ġmissile": 4520,
      "ĠOr": 4521,
      "Ġspending": 4522,
      "Ġsniffed": 4523,
      "Ġsandcastle": 4524,
      "Ġberry": 4525,
      "Ġcared": 4526,
      "Ġcaul": 4527,
      "Ġmention": 4528,
      "ĠSu": 4529,
      "Ġplates": 4530,
      "unately": 4531,
      "herman": 4532,
      "Ġleak": 4533,
      "ases": 4534,
      "ifl": 4535,
      "Ġmyself": 4536,
      "Ġpopped": 4537,
      "Ġsunrise": 4538,
      "Ġstruc": 4539,
      "Ġburied": 4540,
      "Thanks": 4541,
      "Ġamazement": 4542,
      "Ġheads": 4543,
      "ĠNutty": 4544,
      "Ġfallen": 4545,
      "Ġbouncing": 4546,
      "Ġearlier": 4547,
      "Ġjewelry": 4548,
      "Ġfisherman": 4549,
      "Ġbreathe": 4550,
      "Ġseparate": 4551,
      "Ġcaulifl": 4552,
      "Ġstructure": 4553,
      "ab": 4554,
      "Ġpit": 4555,
      "enry": 4556,
      "Ġlick": 4557,
      "urch": 4558,
      "Ġseeing": 4559,
      "Ġrooms": 4560,
      "Ġquiz": 4561,
      "Ġraise": 4562,
      "Ġwrites": 4563,
      "Ġjogging": 4564,
      "Ġmagaz": 4565,
      "Ġfloated": 4566,
      "Ġcrash": 4567,
      "Ġblankets": 4568,
      "Ġsprink": 4569,
      "Ġwhisper": 4570,
      "Ġshooting": 4571,
      "Ġbeans": 4572,
      "ĠTrue": 4573,
      "Ġslept": 4574,
      "'.": 4575,
      "Did": 4576,
      "Sh": 4577,
      "ging": 4578,
      "Ġwigg": 4579,
      "Ġlime": 4580,
      "Ġnation": 4581,
      "Ġsaving": 4582,
      "allow": 4583,
      "anta": 4584,
      "Ġquit": 4585,
      "Ġquack": 4586,
      "Ġtelev": 4587,
      "Ġdoors": 4588,
      "Ġprevent": 4589,
      "Ġgifts": 4590,
      "Ġmailman": 4591,
      "Ġadmir": 4592,
      "Ġclassroom": 4593,
      "Ġpeanuts": 4594,
      "Ġsqueeze": 4595,
      "Ġsettled": 4596,
      "Ġargue": 4597,
      "ÅĵItÃ¢": 4598,
      "Ġyawned": 4599,
      "Ġpanda": 4600,
      "Ġflea": 4601,
      "Ġtelevision": 4602,
      "nies": 4603,
      "vet": 4604,
      "Ġaut": 4605,
      "Ġnovel": 4606,
      "Ġlawn": 4607,
      "ĠLuna": 4608,
      "estig": 4609,
      "Ġvet": 4610,
      "Ġfastest": 4611,
      "Ġjogged": 4612,
      "Ġsticky": 4613,
      "Ġfloat": 4614,
      "Ġdisappear": 4615,
      "Ġinvestig": 4616,
      "Ġshrugged": 4617,
      "Ġignored": 4618,
      "Ġmedal": 4619,
      "Ġmodel": 4620,
      "Ġscratch": 4621,
      "Ġyogurt": 4622,
      "Ġcauliflower": 4623,
      "Peter": 4624,
      "Will": 4625,
      "right": 4626,
      "Ġsizes": 4627,
      "Ġbother": 4628,
      "Ġcaring": 4629,
      "Ġkneel": 4630,
      "ĠCo": 4631,
      "Ġfollowing": 4632,
      "Ġhills": 4633,
      "Ġbuckle": 4634,
      "Ġeasier": 4635,
      "Ġcherries": 4636,
      "Ġdestroyed": 4637,
      "Ġurge": 4638,
      "Ġsubway": 4639,
      "cc": 4640,
      "Ġwaving": 4641,
      "Ġitch": 4642,
      "Ġelev": 4643,
      "elcome": 4644,
      "Ġtwink": 4645,
      "Ġskull": 4646,
      "Ġskipping": 4647,
      "Ġletting": 4648,
      "Ġwarmth": 4649,
      "Sammy": 4650,
      "Ġmatches": 4651,
      "Ġeasily": 4652,
      "Ġworms": 4653,
      "ĠChloe": 4654,
      "Ġstrawberries": 4655,
      "Ġappreciate": 4656,
      "Ġinfant": 4657,
      "Ġpraised": 4658,
      "Ġelevator": 4659,
      "Ġsings": 4660,
      "ito": 4661,
      "Ġcable": 4662,
      "omob": 4663,
      "Ġga": 4664,
      "Ġequ": 4665,
      "Ġbeamed": 4666,
      "ĠIs": 4667,
      "ĠBun": 4668,
      "hter": 4669,
      "Ġjazz": 4670,
      "asc": 4671,
      "Ġagree": 4672,
      "âĤ¬.": 4673,
      "Ġprop": 4674,
      "Ġchalk": 4675,
      "Ġchurch": 4676,
      "Ġlaughter": 4677,
      "Ġglo": 4678,
      "Ġunite": 4679,
      "Ġfloating": 4680,
      "Ġsetting": 4681,
      "Ġtaller": 4682,
      "Ġmusician": 4683,
      "Ġveh": 4684,
      "Ġcaptain": 4685,
      "Ġtriangle": 4686,
      "Ġclaws": 4687,
      "omobile": 4688,
      "Ġtoes": 4689,
      "Ġlect": 4690,
      "Ġpal": 4691,
      "Ġstitch": 4692,
      "ĠJul": 4693,
      "ĠDanny": 4694,
      "Ġmoves": 4695,
      "Ġwatches": 4696,
      "Ġcalls": 4697,
      "Ġchess": 4698,
      "Ġrabbits": 4699,
      "Ġparts": 4700,
      "Ġhearts": 4701,
      "Ġinstr": 4702,
      "Ġpastel": 4703,
      "Ġapart": 4704,
      "Ġeagle": 4705,
      "Ġburning": 4706,
      "Ġcircus": 4707,
      "omeday": 4708,
      "Ġstrawberry": 4709,
      "Ġcomplain": 4710,
      "Ġsausage": 4711,
      "Ġbleed": 4712,
      "Ġautomobile": 4713,
      "Ġinvestigate": 4714,
      "Ġlecture": 4715,
      "Ġpalace": 4716,
      "ived": 4717,
      "Ġachie": 4718,
      "ora": 4719,
      "ĠHave": 4720,
      "Ġemer": 4721,
      "These": 4722,
      "ĠMandy": 4723,
      "ĠWho": 4724,
      "Ġcoal": 4725,
      "Ġtrade": 4726,
      "Ġslip": 4727,
      "Ġkeeping": 4728,
      "Ġtrave": 4729,
      "Ġairpl": 4730,
      "Ġcastles": 4731,
      "Ġmystery": 4732,
      "Ġcollected": 4733,
      "Ġticket": 4734,
      "Ġcrawling": 4735,
      "Ġcuddled": 4736,
      "Ġbumped": 4737,
      "Ġapproached": 4738,
      "Ġgloves": 4739,
      "'ve": 4740,
      "Ouch": 4741,
      "ĊĠ": 4742,
      "ĠV": 4743,
      "Ġtore": 4744,
      "Ġcord": 4745,
      "Ġdaisy": 4746,
      "Ġsore": 4747,
      "Ġsport": 4748,
      "Ġscore": 4749,
      "Ġrod": 4750,
      "ĠLilly": 4751,
      "Ġskirt": 4752,
      "ĠJoy": 4753,
      "Ġblueberry": 4754,
      "Ġblackboard": 4755,
      "Ġprayed": 4756,
      "Daddy": 4757,
      "Ġvideo": 4758,
      "Eventually": 4759,
      "iers": 4760,
      "Ġtide": 4761,
      "Ġwine": 4762,
      "Ġhomes": 4763,
      "Ġfasc": 4764,
      "Ġhesit": 4765,
      "Ġmel": 4766,
      "Ġpages": 4767,
      "Ġgust": 4768,
      "Ġsocks": 4769,
      "ĠMilly": 4770,
      "raged": 4771,
      "Ġspit": 4772,
      "icing": 4773,
      "Ġscooped": 4774,
      "Ġcob": 4775,
      "Ġchir": 4776,
      "uckily": 4777,
      "Ġsurprises": 4778,
      "Ġdifferen": 4779,
      "Ġpaused": 4780,
      "Ġguy": 4781,
      "Ġplanes": 4782,
      "Ġmint": 4783,
      "Ġtomatoes": 4784,
      "Ġrevealed": 4785,
      "Ġinclud": 4786,
      "Ġavocado": 4787,
      "Or": 4788,
      "Ġsi": 4789,
      "Ġsomeday": 4790,
      "Ġtong": 4791,
      "Ġdare": 4792,
      "Ġmall": 4793,
      "atch": 4794,
      "Ġlip": 4795,
      "ĠMillie": 4796,
      "Ġboot": 4797,
      "Ġideas": 4798,
      "Ġheaded": 4799,
      "Ġdemand": 4800,
      "Ġsparkling": 4801,
      "Ġringing": 4802,
      "Ġpillows": 4803,
      "ĠFreddy": 4804,
      "Ġreceive": 4805,
      "Ġchirping": 4806,
      "Ġmagazine": 4807,
      "sing": 4808,
      "Ġtug": 4809,
      "Ġsimp": 4810,
      "Ġgear": 4811,
      "Ġweap": 4812,
      "Ġpoison": 4813,
      "ission": 4814,
      "Ġspots": 4815,
      "Ġunderstanding": 4816,
      "Ġfreez": 4817,
      "Ġinvite": 4818,
      "laire": 4819,
      "Ġsolved": 4820,
      "Ġcandles": 4821,
      "Ġdestination": 4822,
      "Ġweeks": 4823,
      "Ġgrinned": 4824,
      "Ġfirefight": 4825,
      "Lisa": 4826,
      "Tweet": 4827,
      "Wait": 4828,
      "bers": 4829,
      "cakes": 4830,
      "iately": 4831,
      "mm": 4832,
      "mother": 4833,
      "Ġwashing": 4834,
      "htray": 4835,
      "Ġashtray": 4836,
      "ĠFro": 4837,
      "Ġslice": 4838,
      "Ġoranges": 4839,
      "Ġeaten": 4840,
      "ipment": 4841,
      "Ġclimbs": 4842,
      "Ġpulling": 4843,
      "Ġdeeper": 4844,
      "mediately": 4845,
      "Ġvillag": 4846,
      "Ġdecorations": 4847,
      "Ġsoldiers": 4848,
      "Ġradish": 4849,
      "Ġjellyfish": 4850,
      "ĠPeople": 4851,
      "Ġpermission": 4852,
      "Ġreverse": 4853,
      "osed": 4854,
      "web": 4855,
      "oming": 4856,
      "Ġhers": 4857,
      "ĠIts": 4858,
      "Ġmeowed": 4859,
      "Ġsnapped": 4860,
      "ĠCat": 4861,
      "Ġappear": 4862,
      "Ġdrinking": 4863,
      "Ġcrunch": 4864,
      "ulu": 4865,
      "Ġmoments": 4866,
      "Ġsparkle": 4867,
      "fortunately": 4868,
      "ĠCharlie": 4869,
      "Ġsqueezed": 4870,
      "Ġinsisted": 4871,
      "Ġprovide": 4872,
      "Ġdiscuss": 4873,
      "Fluffy": 4874,
      "Ġscooter": 4875,
      "Ġequipment": 4876,
      "Ġairplane": 4877,
      "Ġfascin": 4878,
      "Ġcobweb": 4879,
      "Yuck": 4880,
      "dam": 4881,
      "kins": 4882,
      "Ġfile": 4883,
      "ĠTina": 4884,
      "Ġweighed": 4885,
      "Ġjail": 4886,
      "ĠJames": 4887,
      "Ġcopper": 4888,
      "emember": 4889,
      "Ġreplace": 4890,
      "Ġsits": 4891,
      "Ġchoice": 4892,
      "Ġpatiently": 4893,
      "Ġchewed": 4894,
      "Ġmelted": 4895,
      "Ġstruggling": 4896,
      "Ġpunish": 4897,
      "mend": 4898,
      "reen": 4899,
      "Ġdried": 4900,
      "Ġdire": 4901,
      "Ġeff": 4902,
      "seek": 4903,
      "Ġtremb": 4904,
      "Ġblood": 4905,
      "quito": 4906,
      "ĠKing": 4907,
      "Ġenter": 4908,
      "Ġignore": 4909,
      "Ġpanic": 4910,
      "Ġreceived": 4911,
      "ĠUn": 4912,
      "Ġsuffer": 4913,
      "house": 4914,
      "lvet": 4915,
      "xy": 4916,
      "Ġmitten": 4917,
      "ommend": 4918,
      "anna": 4919,
      "Ġbegged": 4920,
      "Ġstable": 4921,
      "Ġshamp": 4922,
      "Ġmanage": 4923,
      "asis": 4924,
      "ĠLiz": 4925,
      "Ġchores": 4926,
      "Ġblouse": 4927,
      "Ġstrang": 4928,
      "Ġbravely": 4929,
      "ĠGood": 4930,
      "Johnny": 4931,
      "Ġbites": 4932,
      "Ġvelvet": 4933,
      "Ġbelieved": 4934,
      "Ġwarning": 4935,
      "Ġmeeting": 4936,
      "Ġrecommend": 4937,
      "looking": 4938,
      "Ġpedal": 4939,
      "Ġoats": 4940,
      "Ġacorns": 4941,
      "Ġribbon": 4942,
      "Ġvehicle": 4943,
      "Ġchirped": 4944,
      "Ġvillagers": 4945,
      "Ġshampoo": 4946,
      "\",": 4947,
      "All": 4948,
      "Not": 4949,
      "Would": 4950,
      "case": 4951,
      "Ġaer": 4952,
      "Ġoasis": 4953,
      "Ġnone": 4954,
      "Ġyucky": 4955,
      "ĠAb": 4956,
      "umble": 4957,
      "opl": 4958,
      "Ġvac": 4959,
      "Ġsnap": 4960,
      "Ġdrain": 4961,
      "ĠRob": 4962,
      "Ġdresses": 4963,
      "Ġhotel": 4964,
      "orses": 4965,
      "Ġrespons": 4966,
      "Ġpastry": 4967,
      "ĠOl": 4968,
      "Ġteaching": 4969,
      "Ġtwisted": 4970,
      "Ġearthqu": 4971,
      "Ġencouraged": 4972,
      "Ġscattered": 4973,
      "Ġrubber": 4974,
      "Ġmuffin": 4975,
      "Ġweapon": 4976,
      "Ġeffort": 4977,
      "xygen": 4978,
      "Ġaeropl": 4979,
      "squito": 4980,
      "Ġsix": 4981,
      "Ġlugg": 4982,
      "Ġitem": 4983,
      "Ġshed": 4984,
      "sters": 4985,
      "Ġspaces": 4986,
      "Ġalright": 4987,
      "Ġranch": 4988,
      "Ġpride": 4989,
      "ĠLee": 4990,
      "Ġdownstairs": 4991,
      "ĠDan": 4992,
      "aper": 4993,
      "Ġmosquito": 4994,
      "Ġkindly": 4995,
      "ĠRachel": 4996,
      "ĠFloppy": 4997,
      "Ġanswers": 4998,
      "Ġplanted": 4999,
      "Ġinvit": 5000,
      "Ġcoats": 5001,
      "Ġsupposed": 5002,
      "ĠChirp": 5003,
      "Ġsneezed": 5004,
      "Ġrefreshed": 5005,
      "Ġdifference": 5006,
      "Ġluggage": 5007,
      "With": 5008,
      "Ġhorses": 5009,
      "Ġfut": 5010,
      "Ġlung": 5011,
      "Ġmass": 5012,
      "ishing": 5013,
      "ety": 5014,
      "Ġripped": 5015,
      "Ġrush": 5016,
      "alley": 5017,
      "Ġsew": 5018,
      "essie": 5019,
      "Ġworks": 5020,
      "Ġours": 5021,
      "ĠKatie": 5022,
      "Ġpetted": 5023,
      "Ġcompany": 5024,
      "Ġcollecting": 5025,
      "Ġentered": 5026,
      "Ġsafety": 5027,
      "Ġsliding": 5028,
      "ĠBefore": 5029,
      "Ġtickets": 5030,
      "Ġsettle": 5031,
      "Ġrecognized": 5032,
      "Ġdisagreed": 5033,
      "Ġtemple": 5034,
      "Ġexperience": 5035,
      "Ġobserve": 5036,
      "Ġaeroplane": 5037,
      "Ġfuture": 5038,
      "Mandy": 5039,
      "Ġoxygen": 5040,
      "ĠSanta": 5041,
      "amb": 5042,
      "ĠMay": 5043,
      "Ġanch": 5044,
      "Ġroot": 5045,
      "ĠEach": 5046,
      "antly": 5047,
      "embers": 5048,
      "Ġbrain": 5049,
      "Ġremembers": 5050,
      "Ġsteel": 5051,
      "avid": 5052,
      "Ġmouths": 5053,
      "Ġplanet": 5054,
      "Ġhits": 5055,
      "Ġactually": 5056,
      "Ġhurric": 5057,
      "ÅĵThatÃ¢": 5058,
      "Ġadmiring": 5059,
      "Ġstrangers": 5060,
      "Ġearthquake": 5061,
      "Ex": 5062,
      "cage": 5063,
      "cles": 5064,
      "Ġsip": 5065,
      "Ġbun": 5066,
      "Ġwaist": 5067,
      "Ġchat": 5068,
      "Ġobe": 5069,
      "Ġrow": 5070,
      "Ġweight": 5071,
      "Ġshot": 5072,
      "allen": 5073,
      "Ġbirdcage": 5074,
      "Ġnewsp": 5075,
      "ĠLulu": 5076,
      "Ġsunlight": 5077,
      "ÅĵLook": 5078,
      "Ġturning": 5079,
      "Ġwherever": 5080,
      "Ġperched": 5081,
      "Ġhated": 5082,
      "Ġcontinue": 5083,
      "Ġvisiting": 5084,
      "Ġbeef": 5085,
      "Ġbringing": 5086,
      "Ġsuitc": 5087,
      "Ġwhistled": 5088,
      "Ġincre": 5089,
      "ĠSteve": 5090,
      "Ġselling": 5091,
      "Really": 5092,
      "Ġapologize": 5093,
      "Ġmarbles": 5094,
      "Emily": 5095,
      "Ġbrick": 5096,
      "Ġrequest": 5097,
      "ĠCoco": 5098,
      "Ġtongue": 5099,
      "Ġhate": 5100,
      "Ġwagging": 5101,
      "Ġhanger": 5102,
      "igail": 5103,
      "ĠFo": 5104,
      "Ġtease": 5105,
      "Ġremained": 5106,
      "Ġtracks": 5107,
      "Ġdraws": 5108,
      "Ġrested": 5109,
      "Ġcutting": 5110,
      "Ġmarching": 5111,
      "osity": 5112,
      "Ġattached": 5113,
      "Ġneighbors": 5114,
      "Ġfreeze": 5115,
      "Ġwarn": 5116,
      "Ġpinched": 5117,
      "Ġtwigs": 5118,
      "Ġbattery": 5119,
      "Ġpenguins": 5120,
      "Ġanchor": 5121,
      "ha": 5122,
      "zag": 5123,
      "Ġlily": 5124,
      "Ġdigg": 5125,
      "enny": 5126,
      "Ġnavy": 5127,
      "ĠHarry": 5128,
      "Ġbeg": 5129,
      "Ġstaff": 5130,
      "Ġsoared": 5131,
      "enty": 5132,
      "Ġjunk": 5133,
      "Ġcliff": 5134,
      "Ġchallen": 5135,
      "Ġneedles": 5136,
      "Ġimmediately": 5137,
      "Ġlets": 5138,
      "xture": 5139,
      "Ġrestore": 5140,
      "Ġperfor": 5141,
      "Ġcomforted": 5142,
      "Ġzooming": 5143,
      "Ġmachines": 5144,
      "ĠSomeone": 5145,
      "Before": 5146,
      "Ġexamined": 5147,
      "Ġcuddle": 5148,
      "Ġpermit": 5149,
      "Ġneighbourhood": 5150,
      "Ġprune": 5151,
      "Ġcartoons": 5152,
      "Ġsurrounded": 5153,
      "Ġvacation": 5154,
      "Ġhurricane": 5155,
      "Mor": 5156,
      "Welcome": 5157,
      "tory": 5158,
      "walk": 5159,
      "igzag": 5160,
      "amie": 5161,
      "Ġhistory": 5162,
      "aded": 5163,
      "ents": 5164,
      "!\",": 5165,
      "Ġworse": 5166,
      "Ġdecision": 5167,
      "ĠCindy": 5168,
      "Ġconf": 5169,
      "Ġzipped": 5170,
      "Ġladyb": 5171,
      "Ġcomple": 5172,
      "Ġsecrets": 5173,
      "Ġproblems": 5174,
      "Ġguessed": 5175,
      "Ġdisturbed": 5176,
      "Ġtornado": 5177,
      "Ġsimple": 5178,
      "Ġcrunchy": 5179,
      "Ġobey": 5180,
      "Ġdigging": 5181,
      "Moral": 5182,
      "Kitty": 5183,
      "act": 5184,
      "nie": 5185,
      "neath": 5186,
      "oed": 5187,
      "zie": 5188,
      "Ġx": 5189,
      "Ġtoe": 5190,
      "Ġduring": 5191,
      "Ġvalley": 5192,
      "ĠEveryday": 5193,
      "izing": 5194,
      "ĠJosh": 5195,
      "Ġglowed": 5196,
      "Ġbookcase": 5197,
      "Ġbeds": 5198,
      "Ġprinted": 5199,
      "Ġgrowl": 5200,
      "Ġgrandmother": 5201,
      "Ġneighborhood": 5202,
      "Ġguns": 5203,
      "Ġprice": 5204,
      "Ġrides": 5205,
      "Ġprunes": 5206,
      "Ġolive": 5207,
      "ĠChirpy": 5208,
      "Ġbunnies": 5209,
      "Jake": 5210,
      "Ro": 5211,
      "mare": 5212,
      "oved": 5213,
      "ari": 5214,
      "lee": 5215,
      "ĠBir": 5216,
      "Ġlic": 5217,
      "Ġloop": 5218,
      "Ġscur": 5219,
      "Ġbrings": 5220,
      "Ġrang": 5221,
      "bbled": 5222,
      "Ġoper": 5223,
      "Ġwatered": 5224,
      "Ġstruggled": 5225,
      "Ġfamil": 5226,
      "Ġwond": 5227,
      "ÅĵNo": 5228,
      "Ġthrilled": 5229,
      "ĠSpike": 5230,
      "Ġbeneath": 5231,
      "Ġpastels": 5232,
      "ĠSomething": 5233,
      "Ġargued": 5234,
      "Ġbalancing": 5235,
      "Ġstomach": 5236,
      "Ġagreement": 5237,
      "Ġspaceship": 5238,
      "Ġinvitation": 5239,
      "Susie": 5240,
      "fy": 5241,
      "Ġbes": 5242,
      "ĠBird": 5243,
      "ddy": 5244,
      "Ġmuddy": 5245,
      "ĠLater": 5246,
      "isten": 5247,
      "Ġpoppy": 5248,
      "Ġgrape": 5249,
      "Ġoverjoy": 5250,
      "Ġraised": 5251,
      "Ġbroom": 5252,
      "Ġfiremen": 5253,
      "Ġcatching": 5254,
      "Ġsparkles": 5255,
      "Ġpaints": 5256,
      "Ġdiscovery": 5257,
      "Ġjewels": 5258,
      "ĠFrank": 5259,
      "Ġpotatoes": 5260,
      "Ġmeasuring": 5261,
      "Ġbleeding": 5262,
      "Ġfascinated": 5263,
      "Ġnewspaper": 5264,
      "Ġoverjoyed": 5265,
      "ude": 5266,
      "Ġfest": 5267,
      "Ġmittens": 5268,
      "ays": 5269,
      "Ġevent": 5270,
      "ppers": 5271,
      "Ġlips": 5272,
      "ĠMe": 5273,
      "ĠMaggie": 5274,
      "Ġeveryday": 5275,
      "Ġpossible": 5276,
      "Ġcomfy": 5277,
      "Ġcub": 5278,
      "Ġcones": 5279,
      "Ġcrept": 5280,
      "Ġtrapped": 5281,
      "Ġrained": 5282,
      "Ġnightmare": 5283,
      "Ġsteak": 5284,
      "Ġbuildings": 5285,
      "Ġseats": 5286,
      "Ġmenu": 5287,
      "Ġintroduc": 5288,
      "Ġmelon": 5289,
      "Ġfreezer": 5290,
      "Ġmassage": 5291,
      "Ġlicense": 5292,
      "!'": 5293,
      "Yum": 5294,
      "do": 5295,
      "low": 5296,
      "Ġcaut": 5297,
      "Ġpitch": 5298,
      "Ġgain": 5299,
      "lend": 5300,
      "igi": 5301,
      "Ġonwards": 5302,
      "Ġanytime": 5303,
      "Ġremain": 5304,
      "Ġtalent": 5305,
      "Ġcontain": 5306,
      "Ġfixing": 5307,
      "Ġsatis": 5308,
      "Ġprec": 5309,
      "Ġmuscles": 5310,
      "Ġsidewalk": 5311,
      "Ġmustache": 5312,
      "ÅĵIÃ¢": 5313,
      "cape": 5314,
      "Ġclearing": 5315,
      "Ġfigured": 5316,
      "Ġurged": 5317,
      "Ġlandscape": 5318,
      "Ġgrocery": 5319,
      "Ġmentioned": 5320,
      "Ġbeside": 5321,
      "Ġfestiv": 5322,
      "fied": 5323,
      "len": 5324,
      "sity": 5325,
      "udy": 5326,
      "zing": 5327,
      "hell": 5328,
      "Ġfed": 5329,
      "Ġfash": 5330,
      "Ġsty": 5331,
      "Ġupstairs": 5332,
      "ĠBeth": 5333,
      "ĠAdam": 5334,
      "Ġbrid": 5335,
      "Ġbrus": 5336,
      "Ġpretti": 5337,
      "Ġunderneath": 5338,
      "ĠPip": 5339,
      "ĠLetÃ¢": 5340,
      "Ġcrumb": 5341,
      "Ġdrift": 5342,
      "Ġaccom": 5343,
      "Ġminer": 5344,
      "Ġpracticing": 5345,
      "Ġordered": 5346,
      "Ġvanished": 5347,
      "Ġprepared": 5348,
      "Ġuniverse": 5349,
      "Ġbuzzing": 5350,
      "Ġemergen": 5351,
      "Ġwonders": 5352,
      "Ġprettiest": 5353,
      "Bella": 5354,
      "Mark": 5355,
      "ding": 5356,
      "mble": 5357,
      "riger": 5358,
      "ĠQu": 5359,
      "Ġtip": 5360,
      "Ġtonight": 5361,
      "ities": 5362,
      "Ġcal": 5363,
      "ĠThese": 5364,
      "Ġrust": 5365,
      "Ġweren": 5366,
      "Ġflap": 5367,
      "ĠLike": 5368,
      "ĠDavid": 5369,
      "ĠCarl": 5370,
      "hyth": 5371,
      "Ġvoices": 5372,
      "ĠNot": 5373,
      "Ġcrashed": 5374,
      "Ġpets": 5375,
      "Ġbottles": 5376,
      "Ġcalend": 5377,
      "Ġstirring": 5378,
      "Ġrefriger": 5379,
      "Ġcurtains": 5380,
      "Ġbalanced": 5381,
      "ĠBetsy": 5382,
      "ĠRuby": 5383,
      "Ġproperly": 5384,
      "hythm": 5385,
      "Ġcalendar": 5386,
      "Ġrefrigerator": 5387,
      "ĠOnce": 5388,
      "Ġawe": 5389,
      "Ġbank": 5390,
      "omas": 5391,
      "ĠSad": 5392,
      "ĠHenry": 5393,
      "riage": 5394,
      "ĠBig": 5395,
      "Ġhappiest": 5396,
      "Ġwanting": 5397,
      "Ġwhip": 5398,
      "Ġgirls": 5399,
      "Ġsadness": 5400,
      "Ġlaid": 5401,
      "Ġflav": 5402,
      "Ġzigzag": 5403,
      "Ġbookshe": 5404,
      "ĠJenna": 5405,
      "Ġmission": 5406,
      "Ġbouncy": 5407,
      "Ġtune": 5408,
      "Ġparked": 5409,
      "Ready": 5410,
      "Ġscratched": 5411,
      "Ġrecognize": 5412,
      "Ġmeasured": 5413,
      "Ġuniversity": 5414,
      "Ġstudied": 5415,
      "Ġinstruct": 5416,
      "Ġsuitcase": 5417,
      "Ġcompleted": 5418,
      "Ġprecious": 5419,
      "Ġfestival": 5420,
      "Ġaccompl": 5421,
      "Le": 5422,
      "Mmm": 5423,
      "Ok": 5424,
      "Ye": 5425,
      "eed": 5426,
      "hest": 5427,
      "Ġtugged": 5428,
      "Ġbill": 5429,
      "Ġda": 5430,
      "Ġheat": 5431,
      "ides": 5432,
      "Ġbeat": 5433,
      "Ġloose": 5434,
      "Ġtremble": 5435,
      "agull": 5436,
      "Ġflood": 5437,
      "ĠElly": 5438,
      "Ġbye": 5439,
      "Ġruler": 5440,
      "Ġswims": 5441,
      "Ġsteam": 5442,
      "Ġshopping": 5443,
      "Ġbowed": 5444,
      "Ġaccidents": 5445,
      "ĠChr": 5446,
      "Ġroaring": 5447,
      "ĠZoom": 5448,
      "Ġescaped": 5449,
      "Ġcrackers": 5450,
      "Rex": 5451,
      "Ġstrip": 5452,
      "Ġsoaring": 5453,
      "Ġcurled": 5454,
      "Ġpatterns": 5455,
      "...": 5456,
      "Ġsucceeded": 5457,
      "Ġornaments": 5458,
      "Ġsprinkles": 5459,
      "Ġincluded": 5460,
      "Ġtrembling": 5461,
      "annah": 5462,
      "ĠAbigail": 5463,
      "Ġbridges": 5464,
      "Remember": 5465,
      "Somet": 5466,
      "jam": 5467,
      "Ġwid": 5468,
      "Ġlines": 5469,
      "Ġdied": 5470,
      "Ġnicer": 5471,
      "terday": 5472,
      "Ġseagull": 5473,
      "Ġspill": 5474,
      "Ġchases": 5475,
      "Ġpeel": 5476,
      "Ġgrey": 5477,
      "Ġpupp": 5478,
      "Ġrocked": 5479,
      "Ġstole": 5480,
      "Ġcreation": 5481,
      "Ġrealize": 5482,
      "Ġowned": 5483,
      "Ġsweets": 5484,
      "thank": 5485,
      "Ġsnowball": 5486,
      "Ġrolls": 5487,
      "Ġrockets": 5488,
      "Ġpassing": 5489,
      "Ġpouring": 5490,
      "Ġprotected": 5491,
      "Ġlemons": 5492,
      "Ġpancakes": 5493,
      "Ġleader": 5494,
      "Ġunlocked": 5495,
      "Ġwaffles": 5496,
      "Ġbegin": 5497,
      "Ġemergency": 5498,
      "Ġinstructions": 5499,
      "jamas": 5500,
      "Happy": 5501,
      "Luckily": 5502,
      "rin": 5503,
      "Ġbare": 5504,
      "Ġbang": 5505,
      "Ġfet": 5506,
      "ishes": 5507,
      "ĠSund": 5508,
      "imy": 5509,
      "ĠMiss": 5510,
      "Ġann": 5511,
      "Ġarea": 5512,
      "ĠLucky": 5513,
      "Ġbecoming": 5514,
      "ĠCar": 5515,
      "Ġremove": 5516,
      "ffic": 5517,
      "ĠGigi": 5518,
      "Ġtraffic": 5519,
      "Ġwaits": 5520,
      "Ġseesaw": 5521,
      "Ġprinter": 5522,
      "Ġsteep": 5523,
      "ults": 5524,
      "Ġpajamas": 5525,
      "Ġdoctors": 5526,
      "Ġserved": 5527,
      "Ġclaps": 5528,
      "Ġtasks": 5529,
      "ĠSuzy": 5530,
      "Ġfirefighters": 5531,
      "Ġresponsible": 5532,
      "Ġitems": 5533,
      "Ġoperation": 5534,
      "Ġintroduced": 5535,
      "gers": 5536,
      "son": 5537,
      "Ġlamb": 5538,
      "Ġcakes": 5539,
      "Ġdared": 5540,
      "ĠHop": 5541,
      "vers": 5542,
      "Ġsting": 5543,
      "alph": 5544,
      "ĠLizzy": 5545,
      "Ġpearl": 5546,
      "Ġchef": 5547,
      "ÅĵWe": 5548,
      "Ġwaiter": 5549,
      "Ġtastes": 5550,
      "iggy": 5551,
      "Ġpigs": 5552,
      "Ġgathering": 5553,
      "Ġsolut": 5554,
      "Ġmountains": 5555,
      "Ġdecorated": 5556,
      "ĠZoe": 5557,
      "Ġwisdom": 5558,
      "Ġpencils": 5559,
      "Ġrubs": 5560,
      "Ġlibrarian": 5561,
      "Ġolives": 5562,
      "ĠBetty": 5563,
      "Ġregretted": 5564,
      "Ġpurred": 5565,
      "lowly": 5566,
      "Ġbookshelf": 5567,
      "First": 5568,
      "Mar": 5569,
      "ales": 5570,
      "ĠHoppy": 5571,
      "Ġeight": 5572,
      "Ġripe": 5573,
      "addy": 5574,
      "Ġoutdo": 5575,
      "Ġexit": 5576,
      "icky": 5577,
      "Ġvent": 5578,
      "Ġpeppers": 5579,
      "ĠClaire": 5580,
      "Ġteasing": 5581,
      "Ġhardly": 5582,
      "Ġracing": 5583,
      "Ġsinger": 5584,
      "Ġplanned": 5585,
      "Ġscreams": 5586,
      "Ġbathrobe": 5587,
      "Bobo": 5588,
      "Ġroads": 5589,
      "Ġactiv": 5590,
      "Ġcape": 5591,
      "Ġhurried": 5592,
      "Ġloaded": 5593,
      "Ġsighs": 5594,
      "Ġachieve": 5595,
      "Ġfashion": 5596,
      "ĠSunday": 5597,
      "Mike": 5598,
      "ex": 5599,
      "fit": 5600,
      "ĠYes": 5601,
      "Ġwink": 5602,
      "Ġbones": 5603,
      "Ġheel": 5604,
      "Ġmater": 5605,
      "ĠTues": 5606,
      "Ġrhythm": 5607,
      "Ġmeow": 5608,
      "Ġhugging": 5609,
      "Ġpoking": 5610,
      "Ġhowever": 5611,
      "Ġpears": 5612,
      "Ġstruck": 5613,
      "Ġimage": 5614,
      "Ġbrand": 5615,
      "ÅĵThank": 5616,
      "ÅĵDon": 5617,
      "acob": 5618,
      "Ġbreaking": 5619,
      "ĠRobby": 5620,
      "Ġcuriosity": 5621,
      "Ġfrosting": 5622,
      "Ġmixing": 5623,
      "Ġwinning": 5624,
      "Goodbye": 5625,
      "Ġentire": 5626,
      "Ġsafer": 5627,
      "Ġfolded": 5628,
      "Ġstamps": 5629,
      "âĤ¬âĢĿ": 5630,
      "Ġstealing": 5631,
      "Ġcostumes": 5632,
      "Ġcurly": 5633,
      "Ġencourage": 5634,
      "Ġpadd": 5635,
      "ĠFroggy": 5636,
      "Sometimes": 5637,
      "Ġmateri": 5638,
      "ĠTuesday": 5639,
      "Bobby": 5640,
      "Ha": 5641,
      "ik": 5642,
      "mallow": 5643,
      "per": 5644,
      "uzz": 5645,
      "zen": 5646,
      "Ġti": 5647,
      "Ġmister": 5648,
      "ayla": 5649,
      "ana": 5650,
      "Ġthro": 5651,
      "Ġhomework": 5652,
      "Ġpeered": 5653,
      "Ġofficer": 5654,
      "ĠPenny": 5655,
      "ĠGreen": 5656,
      "Ġwondering": 5657,
      "Ġfrozen": 5658,
      "Ġwooden": 5659,
      "oline": 5660,
      "Ġcollection": 5661,
      "ĠStop": 5662,
      "Ġpiles": 5663,
      "Ġstudying": 5664,
      "arshmallow": 5665,
      "Ġpaddle": 5666,
      "Ġstruggle": 5667,
      "Ġdisagree": 5668,
      "Ġshadows": 5669,
      "Ġladybug": 5670,
      "Ġbillboard": 5671,
      "Ġbarely": 5672,
      "Ġthroat": 5673,
      "George": 5674,
      "Mittens": 5675,
      "Teddy": 5676,
      "iar": 5677,
      "mel": 5678,
      "Ġwiz": 5679,
      "edding": 5680,
      "Ġfara": 5681,
      "itely": 5682,
      "erature": 5683,
      "Ġge": 5684,
      "Ġbend": 5685,
      "Ġbeard": 5686,
      "Ġstare": 5687,
      "ĠMat": 5688,
      "ĠAn": 5689,
      "Ġexact": 5690,
      "Ġknelt": 5691,
      "Ġallow": 5692,
      "Ġclick": 5693,
      "Ġago": 5694,
      "Ġgotten": 5695,
      "Ġdecides": 5696,
      "usted": 5697,
      "ĠDid": 5698,
      "Ġvict": 5699,
      "Ġsorting": 5700,
      "Ġslimy": 5701,
      "Ġunderground": 5702,
      "ĠletÃ¢": 5703,
      "Ġracc": 5704,
      "Ġforgi": 5705,
      "Joey": 5706,
      "ĠDolly": 5707,
      "ĠDoggy": 5708,
      "Ġbeha": 5709,
      "Ġprints": 5710,
      "Ġmatched": 5711,
      "Ġkeys": 5712,
      "Ġkicking": 5713,
      "Ġspiders": 5714,
      "Ġscru": 5715,
      "Ġtickle": 5716,
      "Ġdinosaurs": 5717,
      "Ġsilence": 5718,
      "Ġmemory": 5719,
      "Ġrubbing": 5720,
      "Ġtemperature": 5721,
      "Ġapplauded": 5722,
      "Ġoutdoors": 5723,
      "Ġfaraway": 5724,
      "Ġraccoon": 5725,
      "Ah": 5726,
      "Pete": 5727,
      "pected": 5728,
      "rance": 5729,
      "uly": 5730,
      "Ġ1": 5731,
      "Ġmast": 5732,
      "Ġpies": 5733,
      "une": 5734,
      "Ġoutfit": 5735,
      "Ġtheirs": 5736,
      "Ġbrushed": 5737,
      "Ġflat": 5738,
      "Ġknees": 5739,
      "ÅĵCan": 5740,
      "Ġdragged": 5741,
      "Ġkeeps": 5742,
      "Ġunex": 5743,
      "Afterwards": 5744,
      "Ġpartic": 5745,
      "Ġbaked": 5746,
      "Ġtrips": 5747,
      "Ġreminder": 5748,
      "Ġknights": 5749,
      "Ġsights": 5750,
      "Ġcompetition": 5751,
      "Ġshivered": 5752,
      "Ġsurface": 5753,
      "Ġpupil": 5754,
      "Ġdusty": 5755,
      "Ġreveal": 5756,
      "Ġscurried": 5757,
      "Ġbrushes": 5758,
      "Ġsolution": 5759,
      "Ġunexpected": 5760,
      ".'": 5761,
      "hins": 5762,
      "ib": 5763,
      "ody": 5764,
      "Ġsides": 5765,
      "Ġfir": 5766,
      "Ġheav": 5767,
      "ided": 5768,
      "iding": 5769,
      "owers": 5770,
      "Ġrelease": 5771,
      "riends": 5772,
      "Ġspike": 5773,
      "Ġexha": 5774,
      "Ġscra": 5775,
      "Ġwhatever": 5776,
      "Ġopin": 5777,
      "ÅĵHello": 5778,
      "Ġstaying": 5779,
      "Ġbedtime": 5780,
      "ĠRa": 5781,
      "Ġzero": 5782,
      "Ġdreamt": 5783,
      "Ġsitu": 5784,
      "Ġpotion": 5785,
      "Ġhealed": 5786,
      "Ġrainbows": 5787,
      "Ġdrinks": 5788,
      "Andy": 5789,
      "Ġresult": 5790,
      "Ġorganizing": 5791,
      "Ġsafari": 5792,
      "ĠHowever": 5793,
      "Ġstretching": 5794,
      "Ġblows": 5795,
      "Ġdolphins": 5796,
      "Ġbloomed": 5797,
      "Ġdiscovering": 5798,
      "Ġlabel": 5799,
      "Ġweeping": 5800,
      "Annie": 5801,
      "Ġgazed": 5802,
      "ĠJulie": 5803,
      "Ġtravell": 5804,
      "Ġdirection": 5805,
      "Ġchallenge": 5806,
      "Ġexactly": 5807,
      "James": 5808,
      "Mr": 5809,
      "bies": 5810,
      "rr": 5811,
      "shing": 5812,
      "Ġwound": 5813,
      "Ġfart": 5814,
      "Ġpiggy": 5815,
      "Ġgained": 5816,
      "Ġinch": 5817,
      "sted": 5818,
      "Ġrele": 5819,
      "Ġloving": 5820,
      "Ġroots": 5821,
      "asp": 5822,
      "Ġranger": 5823,
      "ĠFirst": 5824,
      "Ġtruly": 5825,
      "aura": 5826,
      "Ġsnat": 5827,
      "Ġworkers": 5828,
      "ĠThomas": 5829,
      "Ġcontro": 5830,
      "Ġmonsters": 5831,
      "though": 5832,
      "ĠwasnÃ¢": 5833,
      "Ġdragons": 5834,
      "Ġwinner": 5835,
      "Ġexpected": 5836,
      "ĠAlways": 5837,
      "Ġchewing": 5838,
      "Ġcovers": 5839,
      "ophia": 5840,
      "Ġstrike": 5841,
      "Ġpedals": 5842,
      "Ġpunished": 5843,
      "Ġmuffins": 5844,
      "Ġseashell": 5845,
      "Ġkneeled": 5846,
      "Ġguys": 5847,
      "Ġdemanded": 5848,
      "Ġcautious": 5849,
      "Ġcrumbs": 5850,
      "Ġparticular": 5851,
      "Ġfirm": 5852,
      "Ġexhausted": 5853,
      "Polly": 5854,
      "lings": 5855,
      "mas": 5856,
      "uri": 5857,
      "vin": 5858,
      "Ġtim": 5859,
      "Ġtax": 5860,
      "ences": 5861,
      "ĠSlowly": 5862,
      "Ġweb": 5863,
      "ĠBy": 5864,
      "Ġliqu": 5865,
      "Ġnoses": 5866,
      "Ġchoo": 5867,
      "Ġvowed": 5868,
      "bbing": 5869,
      "Ġeats": 5870,
      "Ġgreet": 5871,
      "Ġbudge": 5872,
      "ĠPoppy": 5873,
      "ĠPinky": 5874,
      "Ġcoloring": 5875,
      "Ġwrist": 5876,
      "Ġlistens": 5877,
      "Ġourselves": 5878,
      "Ġsweeties": 5879,
      "Ġrule": 5880,
      "Ġbabies": 5881,
      "Ġdarkness": 5882,
      "avi": 5883,
      "Ġpolishing": 5884,
      "Ġsisters": 5885,
      "Ġrelief": 5886,
      "ĠZero": 5887,
      "Ġsilent": 5888,
      "Ġfuzzy": 5889,
      "Ġcountryside": 5890,
      "Ġitchy": 5891,
      "Ġconfident": 5892,
      "Ġwizard": 5893,
      "Ġtaxi": 5894,
      "Ġliquid": 5895,
      "nes": 5896,
      "ossible": 5897,
      "wo": 5898,
      "you": 5899,
      "Ġwedding": 5900,
      "ednes": 5901,
      "Ġtodd": 5902,
      "Ġboo": 5903,
      "Ġbumpy": 5904,
      "Ġcous": 5905,
      "Ġmice": 5906,
      "Ġpout": 5907,
      "Ġpist": 5908,
      "ĠTiny": 5909,
      "isies": 5910,
      "ĠHappy": 5911,
      "Ġbelly": 5912,
      "ĠJudy": 5913,
      "aren": 5914,
      "Ġscoop": 5915,
      "ĠWednes": 5916,
      "Ġgoodnight": 5917,
      "Ġflas": 5918,
      "Ġflames": 5919,
      "istmas": 5920,
      "Ġsorted": 5921,
      "Ġslap": 5922,
      "Ġslapped": 5923,
      "aky": 5924,
      "Ġteasp": 5925,
      "Ġimpossible": 5926,
      "Ġconcer": 5927,
      "Ġopening": 5928,
      "Ġplanets": 5929,
      "Ġhighest": 5930,
      "Ġdeser": 5931,
      "Ġgiggling": 5932,
      "Ġacted": 5933,
      "Ġentrance": 5934,
      "Ġhonk": 5935,
      "Ġflags": 5936,
      "Ġtwirling": 5937,
      "However": 5938,
      "Ġcopy": 5939,
      "Ġmagnets": 5940,
      "Ġstripes": 5941,
      "Ġpowers": 5942,
      "cuse": 5943,
      "Ġrepeated": 5944,
      "uctantly": 5945,
      "Ġburrow": 5946,
      "ĠFollow": 5947,
      "Ġstyle": 5948,
      "Ġdaisies": 5949,
      "ĠChristmas": 5950,
      "Ġpistol": 5951,
      "ĠWednesday": 5952,
      "Ġteaspoon": 5953,
      "Days": 5954,
      "Fr": 5955,
      "Sophie": 5956,
      "bric": 5957,
      "ivery": 5958,
      "njoy": 5959,
      "hee": 5960,
      "Ġast": 5961,
      "Ġhi": 5962,
      "ouch": 5963,
      "Ġcent": 5964,
      "Ġcough": 5965,
      "arter": 5966,
      "Ġsobbed": 5967,
      "ĠBoun": 5968,
      "ĠMa": 5969,
      "Ġsmarter": 5970,
      "ĠJamie": 5971,
      "opes": 5972,
      "Ġfever": 5973,
      "Ġmane": 5974,
      "ason": 5975,
      "Ġworries": 5976,
      "Ġfabric": 5977,
      "Ġswooped": 5978,
      "ĠEarth": 5979,
      "aker": 5980,
      "Ġcomm": 5981,
      "Ġsnugg": 5982,
      "ÅĵMommy": 5983,
      "Ġstolen": 5984,
      "Ġfoods": 5985,
      "Ġyelling": 5986,
      "itches": 5987,
      "Ġprinting": 5988,
      "Ġarrive": 5989,
      "Ġmatching": 5990,
      "Ġpointy": 5991,
      "Ġcreating": 5992,
      "Ġguest": 5993,
      "angled": 5994,
      "Ġpockets": 5995,
      "Ġexpect": 5996,
      "Ġspraying": 5997,
      "Grace": 5998,
      "Ġmovies": 5999,
      "Ġrescued": 6000,
      "Ġbumps": 6001,
      "Ġsneaked": 6002,
      "Ġcompletely": 6003,
      "Ġobjects": 6004,
      "Ġmasks": 6005,
      "Ġphotos": 6006,
      "Ġcrowd": 6007,
      "ĠSharing": 6008,
      "ĠRover": 6009,
      "Ġfireworks": 6010,
      "Excuse": 6011,
      "ĠBirdy": 6012,
      "Ġsatisfied": 6013,
      "Ġmineral": 6014,
      "Yeah": 6015,
      "Ġventured": 6016,
      "Ġsnatched": 6017,
      "Lola": 6018,
      "Un": 6019,
      "cers": 6020,
      "eep": 6021,
      "jo": 6022,
      "sc": 6023,
      "Ëľ": 6024,
      "Ġaff": 6025,
      "Ġdent": 6026,
      "ĠTess": 6027,
      "ĠTilly": 6028,
      "ĠSure": 6029,
      "ĠyouÃ¢": 6030,
      "Ġwept": 6031,
      "ĠBye": 6032,
      "Ġshined": 6033,
      "Ġboom": 6034,
      "âĤ¬Ëľ": 6035,
      "bbly": 6036,
      "obble": 6037,
      "Ġbravery": 6038,
      "ÅĵWhy": 6039,
      "Ġdelivery": 6040,
      "Ġusually": 6041,
      "Ġcracked": 6042,
      "Ġtouching": 6043,
      "Ġstaring": 6044,
      "Ġstarfish": 6045,
      "Ġinviting": 6046,
      "Ġnetwork": 6047,
      "Ġmelting": 6048,
      "Ġseems": 6049,
      "Ġdelivered": 6050,
      "Ġpumpkins": 6051,
      "Ġshivering": 6052,
      "Ġcamping": 6053,
      "Ġherbs": 6054,
      "Ġsiren": 6055,
      "ÅĵDonÃ¢": 6056,
      "Ġtipt": 6057,
      "Ġfarther": 6058,
      "Ġcontrol": 6059,
      "Cl": 6060,
      "Dave": 6061,
      "Ella": 6062,
      "Fred": 6063,
      "band": 6064,
      "eke": 6065,
      "go": 6066,
      "pite": 6067,
      "ux": 6068,
      "ĠY": 6069,
      "Ġsway": 6070,
      "Ġwre": 6071,
      "Ġfreed": 6072,
      "Ġlux": 6073,
      "ern": 6074,
      "cky": 6075,
      "Ġonions": 6076,
      "ĠItÃ¢": 6077,
      "Ġseven": 6078,
      "Ġcans": 6079,
      "Ġleather": 6080,
      "elle": 6081,
      "usband": 6082,
      "Ġcatches": 6083,
      "Ġpeaches": 6084,
      "ÅĵOh": 6085,
      "Ġexplorers": 6086,
      "Ġtractor": 6087,
      "aced": 6088,
      "Ġpaintings": 6089,
      "Ġscreaming": 6090,
      "Ġteaches": 6091,
      "Ġcaused": 6092,
      "Ġinterested": 6093,
      "Ġcheering": 6094,
      "Ġspeaking": 6095,
      "ĠAnne": 6096,
      "Ġclowns": 6097,
      "ĠPepper": 6098,
      "Ġunpacked": 6099,
      "Ġnails": 6100,
      "Ġscrews": 6101,
      "Ġfluttered": 6102,
      "ĠSuzie": 6103,
      "abel": 6104,
      "Ġquacked": 6105,
      "ĠSadly": 6106,
      "Ġvictory": 6107,
      "Ġsituation": 6108,
      "Alex": 6109,
      "aa": 6110,
      "boo": 6111,
      "een": 6112,
      "uke": 6113,
      "Ġbars": 6114,
      "Ġbunch": 6115,
      "Ġmer": 6116,
      "igning": 6117,
      "Ġrising": 6118,
      "Ġrumble": 6119,
      "ĠMany": 6120,
      "Ġspong": 6121,
      "ĠJon": 6122,
      "opsy": 6123,
      "Ġchuck": 6124,
      "Ġstrings": 6125,
      "ĠChe": 6126,
      "Ġforehead": 6127,
      "Ġkeeper": 6128,
      "Ġtowels": 6129,
      "Ġruin": 6130,
      "Ġcontest": 6131,
      "Ġreluctantly": 6132,
      "Ġpatience": 6133,
      "Ġgrowling": 6134,
      "Ġsupplies": 6135,
      "Ġcelebration": 6136,
      "Ġprayer": 6137,
      "Ġdetermination": 6138,
      "Ġhorns": 6139,
      "Ġreply": 6140,
      "Ġinclude": 6141,
      "Ġdiscussed": 6142,
      "Ġribbons": 6143,
      "Ġgaze": 6144,
      "Tweety": 6145,
      "ĠUnfortunately": 6146,
      "urious": 6147,
      "Ġtiptoed": 6148,
      "Even": 6149,
      "Fin": 6150,
      "Kate": 6151,
      "Sad": 6152,
      "ĠĠĊ": 6153,
      "Ġcash": 6154,
      "Ġcott": 6155,
      "ords": 6156,
      "Ġstern": 6157,
      "Ġplenty": 6158,
      "Ġsoak": 6159,
      "Ġsoaked": 6160,
      "Ġlied": 6161,
      "Ġscient": 6162,
      "ĠFriends": 6163,
      "Ġknowled": 6164,
      "Ġsnuck": 6165,
      "Ġsnakes": 6166,
      "ĠJacky": 6167,
      "Ġgrant": 6168,
      "ÅĵThis": 6169,
      "Ġcolored": 6170,
      "Ġwritten": 6171,
      "ĠNick": 6172,
      "Ġyells": 6173,
      "Ġpretends": 6174,
      "Ġtails": 6175,
      "Ġmarked": 6176,
      "Ġmarriage": 6177,
      "Ġbowls": 6178,
      "Ġreaching": 6179,
      "Ġneighbours": 6180,
      "Ġmarkers": 6181,
      "Ġcoloured": 6182,
      "ĠOut": 6183,
      "Ġpassen": 6184,
      "Ġdiving": 6185,
      "Ġprotecting": 6186,
      "Ġwipes": 6187,
      "Ġadding": 6188,
      "Ġindeed": 6189,
      "Ġrecorded": 6190,
      "Ġarrows": 6191,
      "Ġimproved": 6192,
      "Ġseconds": 6193,
      "Ġsandcastles": 6194,
      "Ġintroduce": 6195,
      "Ġgroceries": 6196,
      "Ġhesitated": 6197,
      "Ġannoy": 6198,
      "Ġactivities": 6199,
      "ĠRabbit": 6200,
      "Ġreleased": 6201,
      "Ġcautiously": 6202,
      "Ġtimer": 6203,
      "Ġscientist": 6204,
      "Ġknowledge": 6205,
      "Henry": 6206,
      "ury": 6207,
      "Ġtour": 6208,
      "Ġhoo": 6209,
      "Ġhusband": 6210,
      "Ġwasted": 6211,
      "Ġglee": 6212,
      "ĠSunny": 6213,
      "llen": 6214,
      "Ġshock": 6215,
      "Ġnect": 6216,
      "ĠAbbie": 6217,
      "icorn": 6218,
      "?\",": 6219,
      "ĠJacob": 6220,
      "Ġscales": 6221,
      "ĠWatch": 6222,
      "Ġfault": 6223,
      "Ġswirl": 6224,
      "Ġblink": 6225,
      "Ġwilling": 6226,
      "iley": 6227,
      "Ġfoc": 6228,
      "oys": 6229,
      "Ġunicorn": 6230,
      "ĠGr": 6231,
      "Ġcloses": 6232,
      "Ġreplaced": 6233,
      "Ġrainco": 6234,
      "Ġarr": 6235,
      "Ġsingle": 6236,
      "Ġresting": 6237,
      "Ġrestored": 6238,
      "Ġhides": 6239,
      "Ġmuscle": 6240,
      "Ġpatted": 6241,
      "Ġforgetting": 6242,
      "hog": 6243,
      "Ġdesert": 6244,
      "Ġwraps": 6245,
      "ĠOllie": 6246,
      "Ġgracefully": 6247,
      "Ġscratches": 6248,
      "Ġhedgehog": 6249,
      "Ġavoid": 6250,
      "ĠRobbie": 6251,
      "Ġstomped": 6252,
      "Ġtwinkle": 6253,
      "ĠGoodbye": 6254,
      "Ġperforman": 6255,
      "Ġfamilies": 6256,
      "Ġfetch": 6257,
      "Ġscrubbed": 6258,
      "Ġsponge": 6259,
      "Ġnectar": 6260,
      "Ġraincoat": 6261,
      "Maggie": 6262,
      "Uh": 6263,
      "lay": 6264,
      "oh": 6265,
      "pare": 6266,
      "zes": 6267,
      "Ġty": 6268,
      "Ġdipped": 6269,
      "Ġpause": 6270,
      "aty": 6271,
      "Ġaren": 6272,
      "urry": 6273,
      "ica": 6274,
      "ĠJessie": 6275,
      "asm": 6276,
      "Ġlearns": 6277,
      "maid": 6278,
      "Ġtramp": 6279,
      "Ġtexture": 6280,
      "ĠPut": 6281,
      "Ġunf": 6282,
      "ĠGary": 6283,
      "Ġsmiley": 6284,
      "Ġdef": 6285,
      "Ġdeal": 6286,
      "Ġbuying": 6287,
      "Ġthreat": 6288,
      "Ġprincesses": 6289,
      "Ġpots": 6290,
      "Ġnapkins": 6291,
      "ĠwouldnÃ¢": 6292,
      "Ġactions": 6293,
      "izzie": 6294,
      "Ġpleasure": 6295,
      "Ġpoliceman": 6296,
      "Ġradishes": 6297,
      "ĠBuzzy": 6298,
      "Ġrecording": 6299,
      "rops": 6300,
      "Ġsneaky": 6301,
      "Ġsausages": 6302,
      "Charlie": 6303,
      "Ġstroll": 6304,
      "Ġstroked": 6305,
      "ĠJulia": 6306,
      "Ġdrifted": 6307,
      "Ġtoddler": 6308,
      "Ġdentist": 6309,
      "Ġmermaid": 6310,
      "Ġchuckled": 6311,
      "Ġtrampoline": 6312,
      "Mrs": 6313,
      "Rose": 6314,
      "die": 6315,
      "sure": 6316,
      "Ġtuck": 6317,
      "Ġtangled": 6318,
      "Ġwow": 6319,
      "Ġwobble": 6320,
      "Ġdam": 6321,
      "Ġmi": 6322,
      "Ġmarshmallow": 6323,
      "esome": 6324,
      "Ġweeke": 6325,
      "indrops": 6326,
      "Ġbacked": 6327,
      "Ġnodd": 6328,
      "ickey": 6329,
      "Ġsomebody": 6330,
      "Ġstartled": 6331,
      "Ġfaced": 6332,
      "iece": 6333,
      "ĠEnjoy": 6334,
      "ĠFor": 6335,
      "Ġsled": 6336,
      "Ġhandful": 6337,
      "Ġraindrops": 6338,
      "Ġshoulders": 6339,
      "ĠPo": 6340,
      "ĠPipp": 6341,
      "Ġunited": 6342,
      "Ġuses": 6343,
      "Ġcuts": 6344,
      "Ġdarker": 6345,
      "Ġdrives": 6346,
      "Ġhider": 6347,
      "Ġcreamy": 6348,
      "Ġmisses": 6349,
      "Ġpaths": 6350,
      "ĠOt": 6351,
      "ĠOw": 6352,
      "Ġcelebrating": 6353,
      "Ġtested": 6354,
      "Ġvalued": 6355,
      "Ġcrabs": 6356,
      "Ġcandies": 6357,
      "Ġtickled": 6358,
      "Grandpa": 6359,
      "Ġsquares": 6360,
      "Ġforks": 6361,
      "Ġbatteries": 6362,
      "Ġtempt": 6363,
      "Ġtricky": 6364,
      "Ġawake": 6365,
      "Ġagrees": 6366,
      "Shh": 6367,
      "Ġwiggled": 6368,
      "Ġhesitant": 6369,
      "ĠOlive": 6370,
      "Ġlungs": 6371,
      "Ġcalmed": 6372,
      "Ġaccomplish": 6373,
      "Ġpaddled": 6374,
      "Ġafford": 6375,
      "Ġperformance": 6376,
      "Ġmarshmallows": 6377,
      "Ġweekend": 6378,
      "?'": 6379,
      "Bet": 6380,
      "Ducky": 6381,
      "blings": 6382,
      "cake": 6383,
      "pit": 6384,
      "sie": 6385,
      "tuce": 6386,
      "Ġsense": 6387,
      "Ġnine": 6388,
      "Ġthird": 6389,
      "Ġropes": 6390,
      "Ġplayers": 6391,
      "Ġwears": 6392,
      "ĠBo": 6393,
      "itted": 6394,
      "Ġkites": 6395,
      "ĠMel": 6396,
      "Ġseals": 6397,
      "Ġgoals": 6398,
      "inda": 6399,
      "ĠcanÃ¢": 6400,
      "umm": 6401,
      "Ġrobb": 6402,
      "ĠWater": 6403,
      "ĠLaura": 6404,
      "ĠEl": 6405,
      "Ġglitter": 6406,
      "Ġlettuce": 6407,
      "Ġrail": 6408,
      "Ġremoved": 6409,
      "Ġjoking": 6410,
      "Ġowners": 6411,
      "Ġruining": 6412,
      "Ġsquish": 6413,
      "ĠJohnson": 6414,
      "Ġreads": 6415,
      "Ġtallest": 6416,
      "ĠKayla": 6417,
      "Ġyesterday": 6418,
      "Ġsigned": 6419,
      "Ġsecure": 6420,
      "brush": 6421,
      "Ġpacking": 6422,
      "ments": 6423,
      "Ġbuckets": 6424,
      "Ġgrandpare": 6425,
      "ĠOwl": 6426,
      "ĠBeing": 6427,
      "Ġborrowed": 6428,
      "Ġpeeking": 6429,
      "Ġblooming": 6430,
      "Ġbreathed": 6431,
      "Ġgiraff": 6432,
      "Ġawesome": 6433,
      "Ġartist": 6434,
      "Ġseason": 6435,
      "Ġsiblings": 6436,
      "ĠUncle": 6437,
      "Ġmaterials": 6438,
      "Ġforgiven": 6439,
      "Ġopinion": 6440,
      "Ġconcert": 6441,
      "Ġsnuggle": 6442,
      "Ġgiraffes": 6443,
      "Boo": 6444,
      "Jul": 6445,
      "Paul": 6446,
      "Wh": 6447,
      "bird": 6448,
      "dies": 6449,
      "iel": 6450,
      "tle": 6451,
      "Ġtig": 6452,
      "Ġlower": 6453,
      "Ġocc": 6454,
      "oni": 6455,
      "Ġech": 6456,
      "Ġeast": 6457,
      "Ġrisk": 6458,
      "Ġbead": 6459,
      "Ġyouth": 6460,
      "ĠBoth": 6461,
      "Ġnotes": 6462,
      "ĠMaddy": 6463,
      "Ġrepa": 6464,
      "idey": 6465,
      "Ġloops": 6466,
      "Ġleast": 6467,
      "ashed": 6468,
      "Ġlap": 6469,
      "Ġyourselves": 6470,
      "Ġdads": 6471,
      "ĠFar": 6472,
      "Ġskill": 6473,
      "Ġbully": 6474,
      "Ġsnail": 6475,
      "emma": 6476,
      "Ġdollars": 6477,
      "ĠPrin": 6478,
      "Ġunsure": 6479,
      "ĠGet": 6480,
      "Ġimportance": 6481,
      "Ġblocking": 6482,
      "Ġbehavi": 6483,
      "Ġgrassy": 6484,
      "Ġmagician": 6485,
      "Ġtablet": 6486,
      "Ġmarks": 6487,
      "Ġmiles": 6488,
      "Ġzookeeper": 6489,
      "Ġsplashes": 6490,
      "Ġscaring": 6491,
      "Ġscarves": 6492,
      "Ġembarrass": 6493,
      "Ġhonked": 6494,
      "Ġseeker": 6495,
      "Ġsource": 6496,
      "Ġsquealed": 6497,
      "Ġlogs": 6498,
      "Ġswans": 6499,
      "Ġjackets": 6500,
      "Ġcushions": 6501,
      "Ġlollipops": 6502,
      "Ġhallway": 6503,
      "Ġfluttering": 6504,
      "Ġtwinkling": 6505,
      "Ġincrease": 6506,
      "Leo": 6507,
      "Ġbeginning": 6508,
      "Maria": 6509,
      "melia": 6510,
      "Ġcousin": 6511,
      "Ġluxury": 6512,
      "Ġcashier": 6513,
      "Ġmixture": 6514,
      "Ġtigers": 6515,
      "Ġrepaired": 6516,
      "Bl": 6517,
      "Gre": 6518,
      "Run": 6519,
      "Sandy": 6520,
      "Toby": 6521,
      "rig": 6522,
      "uzzy": 6523,
      "Ġcause": 6524,
      "Ġden": 6525,
      "iled": 6526,
      "ĠSmo": 6527,
      "ans": 6528,
      "ira": 6529,
      "ĠBinky": 6530,
      "Ġreass": 6531,
      "Ġlosing": 6532,
      "ĠJune": 6533,
      "aret": 6534,
      "Ġchop": 6535,
      "Ġchips": 6536,
      "Ġslam": 6537,
      "Those": 6538,
      "Ġteles": 6539,
      "ÅĵDo": 6540,
      "Ġdrawn": 6541,
      "Ġrocking": 6542,
      "Ġremembering": 6543,
      "Ġusual": 6544,
      "ĠRalph": 6545,
      "Ġworker": 6546,
      "Ġsticking": 6547,
      "ĠNora": 6548,
      "Ġamount": 6549,
      "Ġtricked": 6550,
      "Ġfilling": 6551,
      "Ġslower": 6552,
      "Ġfairies": 6553,
      "ĠKeep": 6554,
      "Ġhealth": 6555,
      "Ġhopeful": 6556,
      "Ġshrinking": 6557,
      "Ġfolding": 6558,
      "ĠBecky": 6559,
      "Ġdrums": 6560,
      "ĠZara": 6561,
      "Ġpaying": 6562,
      "Ġwandering": 6563,
      "Ġknocks": 6564,
      "Ġhelmets": 6565,
      "Ġsymbols": 6566,
      "Ġencourag": 6567,
      "Ġshelves": 6568,
      "Ġcheeks": 6569,
      "ÅĵYouÃ¢": 6570,
      "Ġwiggle": 6571,
      "Ġachieved": 6572,
      "Roar": 6573,
      "ĠQuick": 6574,
      "Ġpuppies": 6575,
      "iki": 6576,
      "Ġscraped": 6577,
      "Ġdeserve": 6578,
      "Ġtelescope": 6579,
      "An": 6580,
      "By": 6581,
      "Bad": 6582,
      "Claire": 6583,
      "During": 6584,
      "Katie": 6585,
      "Millie": 6586,
      "Tina": 6587,
      "cited": 6588,
      "nk": 6589,
      "hello": 6590,
      "Ġtiss": 6591,
      "Ġaud": 6592,
      "Ġwest": 6593,
      "Ġlimes": 6594,
      "Ġdie": 6595,
      "Ġdots": 6596,
      "Ġsank": 6597,
      "ĠSophia": 6598,
      "ĠHannah": 6599,
      "Ġstitches": 6600,
      "ades": 6601,
      "Ġplaytime": 6602,
      "allowed": 6603,
      "Ġneither": 6604,
      "Ġexcept": 6605,
      "ĠJan": 6606,
      "ops": 6607,
      "Ġfears": 6608,
      "Ġroars": 6609,
      "ĠLuckily": 6610,
      "ĠListen": 6611,
      "Ġswallowed": 6612,
      "Ġblast": 6613,
      "Ġtwenty": 6614,
      "Ġuntie": 6615,
      "Ġadult": 6616,
      "ĠPandy": 6617,
      "Ġconn": 6618,
      "Ġafterwards": 6619,
      "ths": 6620,
      "Ġparties": 6621,
      "ĠEmmy": 6622,
      "Ġtalks": 6623,
      "Ġpolished": 6624,
      "Ġproject": 6625,
      "Ġnaps": 6626,
      "Ġmarker": 6627,
      "Ġresults": 6628,
      "Ġcoral": 6629,
      "ĠZoomy": 6630,
      "Ġwishing": 6631,
      "Ġtunnels": 6632,
      "Ġcorners": 6633,
      "Ġzipping": 6634,
      "Ġresisted": 6635,
      "Ġdelivering": 6636,
      "ronaut": 6637,
      "Ġcomplained": 6638,
      "Ġrewarded": 6639,
      "Ġexperi": 6640,
      "Ġburst": 6641,
      "Ġtraveled": 6642,
      "Ġsports": 6643,
      "Ġgrowls": 6644,
      "Ġrusty": 6645,
      "Ġsnowballs": 6646,
      "Ġgeese": 6647,
      "ĠMatt": 6648,
      "Ġpouted": 6649,
      "Ġastronaut": 6650,
      "Unfortunately": 6651,
      "rigued": 6652,
      "Danny": 6653,
      "For": 6654,
      "Have": 6655,
      "Pe": 6656,
      "Some": 6657,
      "fire": 6658,
      "ippy": 6659,
      "lves": 6660,
      "Ġwins": 6661,
      "Ġhitting": 6662,
      "immer": 6663,
      "order": 6664,
      "Ġinsp": 6665,
      "Ġrings": 6666,
      "Ġstem": 6667,
      "river": 6668,
      "ados": 6669,
      "choo": 6670,
      "endy": 6671,
      "ĠĊĠ": 6672,
      "ĠJay": 6673,
      "Ġleap": 6674,
      "Ġcoach": 6675,
      "ĠLinda": 6676,
      "Ġtreehouse": 6677,
      "aula": 6678,
      "Ġslices": 6679,
      "Ġquilt": 6680,
      "Ġstays": 6681,
      "aste": 6682,
      "Ġwindy": 6683,
      "ĠSpidey": 6684,
      "Ġargu": 6685,
      "Ġbeloved": 6686,
      "Ġsteer": 6687,
      "ĠFlora": 6688,
      "Ġfoxes": 6689,
      "Ġplans": 6690,
      "Ġchoices": 6691,
      "Ġrespond": 6692,
      "ĠThanks": 6693,
      "Ġwrapping": 6694,
      "Ġmatters": 6695,
      "Ġsalty": 6696,
      "ĠLeave": 6697,
      "Ġsuggest": 6698,
      "Ġperforming": 6699,
      "Ġleaning": 6700,
      "Ġbasement": 6701,
      "Ġseparated": 6702,
      "Ġavocados": 6703,
      "Ġrepeats": 6704,
      "Ġinstrum": 6705,
      "Ġsewed": 6706,
      "Ġfamiliar": 6707,
      "ĠNothing": 6708,
      "Ġchefs": 6709,
      "Ġ10": 6710,
      "Ġwreck": 6711,
      "Ġpassengers": 6712,
      "Ġarranged": 6713,
      "ĠPippin": 6714,
      "Ġaccomplishment": 6715,
      "Ġaudience": 6716,
      "Ġarguing": 6717,
      "Car": 6718,
      "Our": 6719,
      "Whee": 6720,
      "abby": 6721,
      "cl": 6722,
      "ded": 6723,
      "no": 6724,
      "wk": 6725,
      "yan": 6726,
      "Ġlined": 6727,
      "Ġcust": 6728,
      "Ġmes": 6729,
      "ĠTwo": 6730,
      "Ġoh": 6731,
      "Ġgest": 6732,
      "Ġhawk": 6733,
      "Ġrus": 6734,
      "Ġstool": 6735,
      "Ġyounger": 6736,
      "step": 6737,
      "ĠBaa": 6738,
      "ĠMickey": 6739,
      "Ġgobbled": 6740,
      "Ġworn": 6741,
      "Ġcond": 6742,
      "Ġflapping": 6743,
      "ĠLuke": 6744,
      "essica": 6745,
      "retty": 6746,
      "Ġintrigued": 6747,
      "Ġpebbles": 6748,
      "ÅĵMom": 6749,
      "ÅĵMy": 6750,
      "Ġdancers": 6751,
      "Ġbelts": 6752,
      "Ġcolder": 6753,
      "ĠFlopsy": 6754,
      "umbling": 6755,
      "Ġexpress": 6756,
      "Ġwarri": 6757,
      "Ġacting": 6758,
      "Ġhoriz": 6759,
      "Ġrecorder": 6760,
      "Ġbanged": 6761,
      "Ġpans": 6762,
      "Ġcrossing": 6763,
      "ĠStar": 6764,
      "Ġexamining": 6765,
      "Ġglasses": 6766,
      "Ġedges": 6767,
      "Ġerase": 6768,
      "Meow": 6769,
      "weed": 6770,
      "Ġoysters": 6771,
      "Ġsurrendered": 6772,
      "Ġprovided": 6773,
      "Ġsuffered": 6774,
      "Ġpresses": 6775,
      "Chloe": 6776,
      "Ġlicking": 6777,
      "Ġincluding": 6778,
      "Ġfirefighter": 6779,
      "Ġdirect": 6780,
      "Ġwarnings": 6781,
      "Ġflavor": 6782,
      "Ġswimsuit": 6783,
      "Ġheavier": 6784,
      "Ġsquishy": 6785,
      "Ġoccas": 6786,
      "Ġechoed": 6787,
      "Ġbeads": 6788,
      "Ġcustom": 6789,
      "Ġmesmer": 6790,
      "Bunny": 6791,
      "Ew": 6792,
      "Hannah": 6793,
      "Milly": 6794,
      "Rachel": 6795,
      "Tr": 6796,
      "Time": 6797,
      "aven": 6798,
      "bro": 6799,
      "eal": 6800,
      "ibbit": 6801,
      "ple": 6802,
      "tier": 6803,
      "vest": 6804,
      "yes": 6805,
      "Ġtil": 6806,
      "Ġhour": 6807,
      "Ġwadd": 6808,
      "Ġsale": 6809,
      "ĠSim": 6810,
      "ĠSleep": 6811,
      "onies": 6812,
      "irts": 6813,
      "Ġrip": 6814,
      "Ġhissed": 6815,
      "ntil": 6816,
      "sequ": 6817,
      "Ġrefu": 6818,
      "ĠAbby": 6819,
      "ĠAmelia": 6820,
      "Ġflight": 6821,
      "ĠLizzie": 6822,
      "Ġswords": 6823,
      "Ġeverybody": 6824,
      "using": 6825,
      "Ġpecked": 6826,
      "Ġtwice": 6827,
      "Ġprettier": 6828,
      "ĠEverybody": 6829,
      "Ġteased": 6830,
      "Ġconsequ": 6831,
      "Ġcrew": 6832,
      "Ġcreations": 6833,
      "Ġhandsome": 6834,
      "ĠSpark": 6835,
      "ĠNina": 6836,
      "Ġdresser": 6837,
      "Ġsteady": 6838,
      "Ġelf": 6839,
      "Ġsailors": 6840,
      "ĠwonÃ¢": 6841,
      "Ġplanning": 6842,
      "Ġwinked": 6843,
      "Ġseaweed": 6844,
      "Ġmints": 6845,
      "Ġpops": 6846,
      "ĠWithout": 6847,
      "Ġfeeding": 6848,
      "Ġvanish": 6849,
      "Ġsneezing": 6850,
      "ĠSnap": 6851,
      "Ġsniffs": 6852,
      "ÅĵWhatÃ¢": 6853,
      "Ġcampfire": 6854,
      "Ġwires": 6855,
      "Ġlanguages": 6856,
      "Ġobserved": 6857,
      "Ġsuperheroes": 6858,
      "Ġvideos": 6859,
      "ably": 6860,
      "ĠFox": 6861,
      "ĠQuack": 6862,
      "Ġwidened": 6863,
      "ĠPrincess": 6864,
      "Ġwarrior": 6865,
      "Ġhorizon": 6866,
      "Bun": 6867,
      "Harry": 6868,
      "Jamie": 6869,
      "Like": 6870,
      "cter": 6871,
      "driver": 6872,
      "now": 6873,
      "oss": 6874,
      "ĊĊ": 6875,
      "Ġaimed": 6876,
      "eds": 6877,
      "Ġtouc": 6878,
      "initely": 6879,
      "Ġmerry": 6880,
      "Ġponies": 6881,
      "Ġopp": 6882,
      "arling": 6883,
      "ids": 6884,
      "ĠSal": 6885,
      "ĠSque": 6886,
      "ann": 6887,
      "Ġthorn": 6888,
      "lect": 6889,
      "Ġplayroom": 6890,
      "ĠBee": 6891,
      "child": 6892,
      "Ġshoo": 6893,
      "Ġneare": 6894,
      "Ġfeast": 6895,
      "Ġflipped": 6896,
      "ept": 6897,
      "Ġchip": 6898,
      "Ġswept": 6899,
      "Ġgrabbing": 6900,
      "Ġpeck": 6901,
      "Ġslither": 6902,
      "obody": 6903,
      "ĠJojo": 6904,
      "Ġadults": 6905,
      "Ġbraver": 6906,
      "Ġwobbly": 6907,
      "ÅĵCome": 6908,
      "Ġfinal": 6909,
      "ipes": 6910,
      "ĠPudd": 6911,
      "Ġnearly": 6912,
      "Ġache": 6913,
      "ĠNana": 6914,
      "athan": 6915,
      "Ġfroze": 6916,
      "Ġcreativ": 6917,
      "Ġcupcakes": 6918,
      "Ġmailed": 6919,
      "Ġimagining": 6920,
      "Ġgrandchild": 6921,
      "Ġpeacefully": 6922,
      "ĠOur": 6923,
      "Ġpours": 6924,
      "Ġmotion": 6925,
      "Ġbells": 6926,
      "Ġgenie": 6927,
      "Ġpraying": 6928,
      "ĠZip": 6929,
      "Ġleads": 6930,
      "Ġvanilla": 6931,
      "Ġsuits": 6932,
      "ĠBluey": 6933,
      "Ġthud": 6934,
      "ĠMikey": 6935,
      "Ġscrewdriver": 6936,
      "Ġbuzzed": 6937,
      "Ġsurroundings": 6938,
      "Ġrequested": 6939,
      "Ġcobwebs": 6940,
      "Ġrecommended": 6941,
      "ĠRobin": 6942,
      "Ġefforts": 6943,
      "Ġincreased": 6944,
      "Ġperformed": 6945,
      "Ġbehaved": 6946,
      "Ġseashells": 6947,
      "Ġfirmly": 6948,
      "Ġcommun": 6949,
      "ĠGranny": 6950,
      "Ġdefinitely": 6951,
      "Ġnodding": 6952,
      "Ġencouraging": 6953,
      "Ġconsequences": 6954,
      "Ġcreativity": 6955,
      "--": 6956,
      "Dan": 6957,
      "Fine": 6958,
      "Nemo": 6959,
      "ae": 6960,
      "ew": 6961,
      "eel": 6962,
      "father": 6963,
      "gain": 6964,
      "ky": 6965,
      "vas": 6966,
      "int": 6967,
      "itude": 6968,
      "Ġdot": 6969,
      "Ġdarling": 6970,
      "Ġmunch": 6971,
      "ĠTe": 6972,
      "ĠTake": 6973,
      "ility": 6974,
      "Ġgross": 6975,
      "ĠSun": 6976,
      "ley": 6977,
      "Ġbeam": 6978,
      "Ġstair": 6979,
      "ĠMon": 6980,
      "ĠMila": 6981,
      "Ġreason": 6982,
      "Ġspy": 6983,
      "Ġspook": 6984,
      "Ġspikes": 6985,
      "Ġspills": 6986,
      "icia": 6987,
      "Ġhelpers": 6988,
      "Ġbackwards": 6989,
      "Ġnoon": 6990,
      "Ġscamp": 6991,
      "Ġscored": 6992,
      "Ġroses": 6993,
      "Ġcoc": 6994,
      "Ġflown": 6995,
      "Ġflips": 6996,
      "Ġchara": 6997,
      "ĠEx": 6998,
      "ĠFuzzy": 6999,
      "Ġpose": 7000,
      "Ġposit": 7001,
      "Ġexplo": 7002,
      "Ġglued": 7003,
      "ÅĵNow": 7004,
      "Ġbadge": 7005,
      "ĠGemma": 7006,
      "acy": 7007,
      "Ġstrongest": 7008,
      "Ġheading": 7009,
      "Ġstorekeeper": 7010,
      "Ġdrawers": 7011,
      "Ġfills": 7012,
      "ggies": 7013,
      "Ġveggies": 7014,
      "Ġvisitor": 7015,
      "Ġpennies": 7016,
      "anging": 7017,
      "Ġattack": 7018,
      "Ġrivers": 7019,
      "Ġlifts": 7020,
      "Ġlifting": 7021,
      "Ġgrandfather": 7022,
      "ĠAlthough": 7023,
      "Ġwiping": 7024,
      "Ġpanick": 7025,
      "Ġnervously": 7026,
      "Ġpizzas": 7027,
      "Ġclearly": 7028,
      "ĠStay": 7029,
      "Ġpostman": 7030,
      "Ġpedaled": 7031,
      "Ġsurfboard": 7032,
      "rnie": 7033,
      "Ġappreciated": 7034,
      "Ġzebras": 7035,
      "ĠRoger": 7036,
      "Ġdelayed": 7037,
      "Ġrefreshing": 7038,
      "Ġcomplaining": 7039,
      "ĠVroom": 7040,
      "ĠDaniel": 7041,
      "Ġaccomplished": 7042,
      "Ġbehaving": 7043,
      "ibly": 7044,
      "Ġtravelled": 7045,
      "Betty": 7046,
      "Ġgrandparents": 7047,
      "ĠFarmer": 7048,
      "Ġtissue": 7049,
      "broken": 7050,
      "Ġtouches": 7051,
      "Ġspooky": 7052,
      "Ġscampered": 7053,
      "Ġcharacter": 7054,
      "Ab": 7055,
      "Buddy": 7056,
      "Ralph": 7057,
      "belle": 7058,
      "found": 7059,
      "oc": 7060,
      "the": 7061,
      "va": 7062,
      "wise": 7063,
      "Ġ2": 7064,
      "Ġting": 7065,
      "Ġtying": 7066,
      "Ġfaded": 7067,
      "ition": 7068,
      "Ġlent": 7069,
      "Ġdet": 7070,
      "atur": 7071,
      "atul": 7072,
      "veral": 7073,
      "Ġev": 7074,
      "rie": 7075,
      "Ġdod": 7076,
      "ĠMouse": 7077,
      "Ġseveral": 7078,
      "Ġcanvas": 7079,
      "romise": 7080,
      "Ġmeals": 7081,
      "Ġbru": 7082,
      "Ġfact": 7083,
      "Ġflick": 7084,
      "ĠLarry": 7085,
      "plash": 7086,
      "ĠFire": 7087,
      "Ġsunsc": 7088,
      "Ġhanding": 7089,
      "Ġends": 7090,
      "Ġcheers": 7091,
      "Ġwobbled": 7092,
      "ÅĵHi": 7093,
      "Ġdances": 7094,
      "Ġconvers": 7095,
      "Ġwrink": 7096,
      "Ġunw": 7097,
      "ĠRemember": 7098,
      "ĠRiley": 7099,
      "ĠRyan": 7100,
      "Ġdressing": 7101,
      "Ġwarmly": 7102,
      "Ġlighter": 7103,
      "Ġbows": 7104,
      "Ġsnowmen": 7105,
      "Ġtables": 7106,
      "asha": 7107,
      "ĠKaren": 7108,
      "Ġelbow": 7109,
      "Ġpolitely": 7110,
      "uggy": 7111,
      "Ġprove": 7112,
      "Ġspoonful": 7113,
      "Ġbaskets": 7114,
      "Ġfits": 7115,
      "Ġimages": 7116,
      "Ġkicks": 7117,
      "Ġcowb": 7118,
      "Ġdived": 7119,
      "Ġantic": 7120,
      "Ġrecipe": 7121,
      "Ġleading": 7122,
      "Ġdesigned": 7123,
      "Ġsurfing": 7124,
      "Ġenthusi": 7125,
      "...\"": 7126,
      "Ġfirefly": 7127,
      "Ġsprinkled": 7128,
      "Ġemerged": 7129,
      "Ġpunishment": 7130,
      "Ġtalented": 7131,
      "Ġtravelling": 7132,
      "ĠBouncy": 7133,
      "Ġguests": 7134,
      "Clara": 7135,
      "Ġfreedom": 7136,
      "Ġgranted": 7137,
      "Ġinstruments": 7138,
      "Ġrushing": 7139,
      "Ġdirections": 7140,
      "Ġoccasion": 7141,
      "Ġsunscreen": 7142,
      "Any": 7143,
      "Back": 7144,
      "Dear": 7145,
      "Fo": 7146,
      "Lilly": 7147,
      "Nina": 7148,
      "Ru": 7149,
      "Su": 7150,
      "Santa": 7151,
      "Tony": 7152,
      "Yummy": 7153,
      "ael": 7154,
      "baby": 7155,
      "emy": 7156,
      "ollen": 7157,
      "Ġtar": 7158,
      "Ġties": 7159,
      "Ġfant": 7160,
      "inger": 7161,
      "idence": 7162,
      "ena": 7163,
      "ĠSorry": 7164,
      "ancy": 7165,
      "onnie": 7166,
      "lle": 7167,
      "ĠHolly": 7168,
      "ooking": 7169,
      "oosh": 7170,
      "ighing": 7171,
      "Ġrin": 7172,
      "rick": 7173,
      "ĠthatÃ¢": 7174,
      "Ġweeds": 7175,
      "ĠBessie": 7176,
      "elve": 7177,
      "unched": 7178,
      "Ġshall": 7179,
      "ugs": 7180,
      "Ġloc": 7181,
      "Ġbodies": 7182,
      "Ġjugg": 7183,
      "ĠAny": 7184,
      "Ġspices": 7185,
      "Ġmanag": 7186,
      "ĠWendy": 7187,
      "Ġtreated": 7188,
      "Ġage": 7189,
      "Ġdecl": 7190,
      "Ġswollen": 7191,
      "ĠDin": 7192,
      "Ġthoughts": 7193,
      "Ġtweet": 7194,
      "Ġenemy": 7195,
      "Ġovercome": 7196,
      "Ġsnort": 7197,
      "Ġbravest": 7198,
      "ÅĵHey": 7199,
      "Ġdollhouse": 7200,
      "aster": 7201,
      "ĠRicky": 7202,
      "Ġcouple": 7203,
      "ĠAsh": 7204,
      "Ġsmelling": 7205,
      "ichael": 7206,
      "Ġjud": 7207,
      "Ġjoyful": 7208,
      "Ġjobs": 7209,
      "Ġheartbroken": 7210,
      "Ġcaw": 7211,
      "Ġcausing": 7212,
      "Ġhonking": 7213,
      "ĠAli": 7214,
      "Ġaddress": 7215,
      "Ġsunflowers": 7216,
      "years": 7217,
      "Ġgems": 7218,
      "ĠFinny": 7219,
      "Ġmushrooms": 7220,
      "Ġfilms": 7221,
      "ĠUntil": 7222,
      "Ġinsisting": 7223,
      "Ġpassports": 7224,
      "Ġpurr": 7225,
      "Ġadmiration": 7226,
      "Ġspits": 7227,
      "Tweetie": 7228,
      "ĠFrog": 7229,
      "Ġdiscussing": 7230,
      "Ġcubes": 7231,
      "Ġpuppet": 7232,
      "perate": 7233,
      "rrr": 7234,
      "Ġgreeted": 7235,
      "Ġfocused": 7236,
      "Ġresponded": 7237,
      "Ġgesture": 7238,
      "Ġrefuse": 7239,
      "eeling": 7240,
      "Ġenthusiasm": 7241,
      "Ġfantastic": 7242,
      "Baby": 7243,
      "Cindy": 7244,
      "Jerry": 7245,
      "Karen": 7246,
      "May": 7247,
      "Maddy": 7248,
      "Tilly": 7249,
      "belt": 7250,
      "bage": 7251,
      "fall": 7252,
      "garet": 7253,
      "jack": 7254,
      "ker": 7255,
      "mered": 7256,
      "pen": 7257,
      "paste": 7258,
      "rince": 7259,
      "ratul": 7260,
      "while": 7261,
      "yond": 7262,
      "Ġtipped": 7263,
      "Ġcoug": 7264,
      "erm": 7265,
      "Ġpound": 7266,
      "isdom": 7267,
      "Ġgerm": 7268,
      "ĠSw": 7269,
      "iment": 7270,
      "espite": 7271,
      "utter": 7272,
      "Ġearn": 7273,
      "Ġease": 7274,
      "Ġund": 7275,
      "Ġbeyond": 7276,
      "Ġstall": 7277,
      "Ġstain": 7278,
      "Ġstumble": 7279,
      "Ġwithin": 7280,
      "Ġonward": 7281,
      "Ġsofter": 7282,
      "ading": 7283,
      "storm": 7284,
      "Ġshady": 7285,
      "Ġshirts": 7286,
      "lyn": 7287,
      "Ġkings": 7288,
      "ĠMan": 7289,
      "Ġanger": 7290,
      "ĠJe": 7291,
      "Ġlevers": 7292,
      "ĠWell": 7293,
      "ĠWigg": 7294,
      "ongratul": 7295,
      "ĠYouÃ¢": 7296,
      "Ġnewfound": 7297,
      "Ġprank": 7298,
      "Ġchanges": 7299,
      "Ġchanging": 7300,
      "usan": 7301,
      "aps": 7302,
      "Ġslips": 7303,
      "Ġwatering": 7304,
      "iona": 7305,
      "Ġglitt": 7306,
      "Ġbeautifully": 7307,
      "bee": 7308,
      "Ġraces": 7309,
      "ÅĵOkay": 7310,
      "ÅĵOf": 7311,
      "ĠPlay": 7312,
      "Ġexplorer": 7313,
      "Ġdefe": 7314,
      "Ġforgives": 7315,
      "Ġsandpit": 7316,
      "Ġcrashing": 7317,
      "Ġsnowfl": 7318,
      "Ġcloudy": 7319,
      "ugging": 7320,
      "Ġjoining": 7321,
      "Ġbaths": 7322,
      "ounced": 7323,
      "Ġforgets": 7324,
      "Ġdesigning": 7325,
      "Ġcomforting": 7326,
      "Ġgrandbaby": 7327,
      "Ġrobots": 7328,
      "Ġaction": 7329,
      "Ġseatbelt": 7330,
      "Ġ''": 7331,
      "Ġspreading": 7332,
      "Ġtidied": 7333,
      "Ġgarbage": 7334,
      "Ġwhispers": 7335,
      "Ġscram": 7336,
      "Ġprayers": 7337,
      "Ġchews": 7338,
      "ĠZee": 7339,
      "Ġangels": 7340,
      "Always": 7341,
      "ĠFreddie": 7342,
      "Ġsweep": 7343,
      "Ġtoothpaste": 7344,
      "Ġbreathing": 7345,
      "Ġneatly": 7346,
      "Ġawo": 7347,
      "Ġapplauding": 7348,
      "Ġlumberjack": 7349,
      "Ġyielded": 7350,
      "Quick": 7351,
      "Ġtrembled": 7352,
      "Ġsuffering": 7353,
      "ĠOliver": 7354,
      "Ġchatter": 7355,
      "Ġconfidence": 7356,
      "ĠBirdie": 7357,
      "Ġwider": 7358,
      "ĠCheese": 7359,
      "Ġcottage": 7360,
      "Ġannoyed": 7361,
      "Ġbehavior": 7362,
      "Ġconnected": 7363,
      "immering": 7364,
      "Ġevil": 7365,
      "Ġwrinkled": 7366,
      "Follow": 7367,
      "Abby": 7368,
      "Buzz": 7369,
      "Liz": 7370,
      "Listen": 7371,
      "Miss": 7372,
      "Rob": 7373,
      "hind": 7374,
      "lers": 7375,
      "mates": 7376,
      "uing": 7377,
      "upt": 7378,
      "uppy": 7379,
      "ĠX": 7380,
      "Ġaim": 7381,
      "Ġwag": 7382,
      "itched": 7383,
      "Ġdarl": 7384,
      "Ġdaring": 7385,
      "Ġheaven": 7386,
      "athy": 7387,
      "enced": 7388,
      "Ġni": 7389,
      "Ġnuzz": 7390,
      "ani": 7391,
      "anwhile": 7392,
      "Ġinter": 7393,
      "Ġstung": 7394,
      "Ġsteth": 7395,
      "rip": 7396,
      "Ġplucked": 7397,
      "ĠBri": 7398,
      "Ġshown": 7399,
      "Ġshallow": 7400,
      "ĠMad": 7401,
      "Ġknit": 7402,
      "ĠJessica": 7403,
      "ophone": 7404,
      "Ġscent": 7405,
      "Ġscores": 7406,
      "Ġmemb": 7407,
      "ĠWin": 7408,
      "ĠWil": 7409,
      "ĠWally": 7410,
      "Ġprob": 7411,
      "ĠLove": 7412,
      "Ġwhose": 7413,
      "Ġwhoever": 7414,
      "Ġcares": 7415,
      "Ġposs": 7416,
      "Ġposter": 7417,
      "Ġtwin": 7418,
      "ĠCle": 7419,
      "Ġcleared": 7420,
      "Ġpuff": 7421,
      "ÅĵWow": 7422,
      "ÅĵWell": 7423,
      "Ġfins": 7424,
      "Ġfinishing": 7425,
      "ĠPam": 7426,
      "ĠPuppy": 7427,
      "Ġconqu": 7428,
      "Ġtraps": 7429,
      "Ġbluebird": 7430,
      "acles": 7431,
      "ĠRain": 7432,
      "Ġsweetest": 7433,
      "Ġbiting": 7434,
      "ĠDog": 7435,
      "Ġthroughout": 7436,
      "Ġworrying": 7437,
      "Ġpromises": 7438,
      "Ġdropping": 7439,
      "Ġfloors": 7440,
      "ulars": 7441,
      "ĠKelly": 7442,
      "spe": 7443,
      "Ġunderstands": 7444,
      "oscope": 7445,
      "Ġvisitors": 7446,
      "Ġplanting": 7447,
      "Ġbeeh": 7448,
      "Ġdespite": 7449,
      "Ġdrivers": 7450,
      "Ġrespected": 7451,
      "Ġfootstep": 7452,
      "Steve": 7453,
      "Ġtrusting": 7454,
      "ĠAlong": 7455,
      "Ġdriveway": 7456,
      "Ġreminding": 7457,
      "ĠBea": 7458,
      "ĠBeep": 7459,
      "ĠStart": 7460,
      "ĠBruce": 7461,
      "Ġadds": 7462,
      "Ġsoapy": 7463,
      "Ġcrawls": 7464,
      "Ġhunting": 7465,
      "faction": 7466,
      "Remy": 7467,
      "Ġtwisty": 7468,
      "Ġsqueezing": 7469,
      "Ġdiamonds": 7470,
      "Ġsniffing": 7471,
      "Ġleopards": 7472,
      "Ġbinoc": 7473,
      "Ġvests": 7474,
      "ĠUnder": 7475,
      "Ġdisplayed": 7476,
      "ĠPatty": 7477,
      "Ġuniforms": 7478,
      "ĠRuss": 7479,
      "Ġsnaps": 7480,
      "ĠRobert": 7481,
      "ĠBirthday": 7482,
      "Ġsatisfaction": 7483,
      "Ġflavors": 7484,
      "Ġmeowing": 7485,
      "Ġgears": 7486,
      "Ġmaster": 7487,
      "Ġmasterp": 7488,
      "Frank": 7489,
      "Ġsternly": 7490,
      "ĠOther": 7491,
      "Ġrobber": 7492,
      "Ġrisks": 7493,
      "Blue": 7494,
      "Ġslammed": 7495,
      "Ġtilted": 7496,
      "Ġwaddled": 7497,
      "ĠSqueaky": 7498,
      "Ġanticip": 7499,
      "Ruby": 7500,
      "Ġscrambled": 7501,
      "Ġdarlings": 7502,
      "Ġstethoscope": 7503,
      "Ġmembers": 7504,
      "Ġprobably": 7505,
      "Ġfootsteps": 7506,
      "Ġbinoculars": 7507,
      "Adam": 7508,
      "Bu": 7509,
      "Beth": 7510,
      "Co": 7511,
      "Hop": 7512,
      "but": 7513,
      "bel": 7514,
      "bec": 7515,
      "ca": 7516,
      "ners": 7517,
      "xophone": 7518,
      "Ġic": 7519,
      "Ġtumbled": 7520,
      "Ġsy": 7521,
      "Ġbou": 7522,
      "Ġbound": 7523,
      "Ġfif": 7524,
      "Ġdump": 7525,
      "Ġpipes": 7526,
      "Ġnibb": 7527,
      "Ġsav": 7528,
      "Ġsadd": 7529,
      "Ġsaxophone": 7530,
      "ĠSa": 7531,
      "ori": 7532,
      "onse": 7533,
      "oto": 7534,
      "Ġyumm": 7535,
      "Ġrout": 7536,
      "Ġrather": 7537,
      "Ġramp": 7538,
      "Ġrott": 7539,
      "Ġplain": 7540,
      "stick": 7541,
      "ĠBuggy": 7542,
      "ĠMuff": 7543,
      "ĠMichael": 7544,
      "Ġaside": 7545,
      "Ġloses": 7546,
      "Ġscen": 7547,
      "ĠWisdom": 7548,
      "Ġcosy": 7549,
      "Ġcarriage": 7550,
      "Ġblond": 7551,
      "ĠDot": 7552,
      "ĠDina": 7553,
      "Ġvines": 7554,
      "Ġtaped": 7555,
      "ĠFiona": 7556,
      "Ġwaters": 7557,
      "Ġexplor": 7558,
      "ĠCla": 7559,
      "ÅĵSure": 7560,
      "Ġbadger": 7561,
      "ĠPup": 7562,
      "ĠPaula": 7563,
      "ĠPrince": 7564,
      "Ġconfu": 7565,
      "Ġconfl": 7566,
      "Ġconvin": 7567,
      "Ġthrown": 7568,
      "Ġtoward": 7569,
      "ĠNell": 7570,
      "ĠNobody": 7571,
      "Ġamong": 7572,
      "Ġblocked": 7573,
      "Ġcuriously": 7574,
      "Ġwarmer": 7575,
      "ĠThose": 7576,
      "Ġcounts": 7577,
      "Ġbuses": 7578,
      "issa": 7579,
      "ĠJaney": 7580,
      "Ġmonths": 7581,
      "Ġslowed": 7582,
      "rench": 7583,
      "Ġcompared": 7584,
      "Ġpaintbrush": 7585,
      "Ġwelcoming": 7586,
      "Ġbelieving": 7587,
      "Ġchopped": 7588,
      "Ġhealing": 7589,
      "Ġlunchbox": 7590,
      "Ġbandages": 7591,
      "Ġresponse": 7592,
      "Goodnight": 7593,
      "Ġshrunk": 7594,
      "Ġsolving": 7595,
      "Ġgasp": 7596,
      "Ġtidying": 7597,
      "Ġdigs": 7598,
      "Ġguessing": 7599,
      "Ġfrowning": 7600,
      "Ġunlo": 7601,
      "Ġcuddles": 7602,
      "ĠAlexa": 7603,
      "Ġtravels": 7604,
      "Ġsending": 7605,
      "ivia": 7606,
      "Ġbeeped": 7607,
      "ĠUp": 7608,
      "Ġtearing": 7609,
      "Ġexercises": 7610,
      "uctor": 7611,
      "Ġthumbs": 7612,
      "Ġrotting": 7613,
      "Ġlending": 7614,
      "Ġquarreling": 7615,
      "Ġpandas": 7616,
      "Ġstroke": 7617,
      "Ġburying": 7618,
      "Ġinsects": 7619,
      "Ġwhispering": 7620,
      "Ġtwinkled": 7621,
      "Excited": 7622,
      "Ġminerals": 7623,
      "Ġrustling": 7624,
      "Ġmaterial": 7625,
      "Ġcenter": 7626,
      "Sadly": 7627,
      "Ġhoops": 7628,
      "Ġtype": 7629,
      "Ġtextures": 7630,
      "Ġforgiveness": 7631,
      "Ġreassured": 7632,
      "Ġexperienced": 7633,
      "Ġconductor": 7634,
      "Ġmesmerized": 7635,
      "ĠSimon": 7636,
      "Ġtarget": 7637,
      "Ġdeclared": 7638,
      "Ġsnowflakes": 7639,
      "Ġbeehive": 7640,
      "Ġanticipation": 7641,
      "Ġbouqu": 7642,
      "Ġrotten": 7643,
      "ĠClaus": 7644,
      "Br": 7645,
      "Bill": 7646,
      "Honey": 7647,
      "Kayla": 7648,
      "Mat": 7649,
      "Mimi": 7650,
      "Oops": 7651,
      "Papa": 7652,
      "Since": 7653,
      "Too": 7654,
      "Take": 7655,
      "Watch": 7656,
      "cher": 7657,
      "gar": 7658,
      "rink": 7659,
      "whe": 7660,
      "well": 7661,
      "Ġsens": 7662,
      "Ġtheat": 7663,
      "inted": 7664,
      "Ġwakes": 7665,
      "Ġfain": 7666,
      "ouble": 7667,
      "ita": 7668,
      "its": 7669,
      "Ġmoo": 7670,
      "Ġpens": 7671,
      "Ġpouch": 7672,
      "ĠTry": 7673,
      "Ġgon": 7674,
      "ider": 7675,
      "ĠSuper": 7676,
      "ĠSusan": 7677,
      "Ġthir": 7678,
      "irrel": 7679,
      "Ġbeating": 7680,
      "ĠIm": 7681,
      "Ġsoot": 7682,
      "Ġweighing": 7683,
      "ĠBow": 7684,
      "ĠBecause": 7685,
      "Ġform": 7686,
      "Ġshave": 7687,
      "Ġdoves": 7688,
      "ĠĊĊ": 7689,
      "Ġboards": 7690,
      "Ġjay": 7691,
      "artin": 7692,
      "Ġcanes": 7693,
      "icles": 7694,
      "Ġali": 7695,
      "ĠWas": 7696,
      "ddie": 7697,
      "ĠButt": 7698,
      "Ġcarries": 7699,
      "Ġgoodies": 7700,
      "Ġcharge": 7701,
      "ĠErnie": 7702,
      "quirrel": 7703,
      "ĠFurry": 7704,
      "Ġposes": 7705,
      "bbling": 7706,
      "Ġtwelve": 7707,
      "Ġsmallest": 7708,
      "Ġfond": 7709,
      "Ġsnug": 7710,
      "Ġuntied": 7711,
      "ĠCurious": 7712,
      "Ġraising": 7713,
      "Ġdangers": 7714,
      "Ġcleaner": 7715,
      "ĠPen": 7716,
      "Ġstopping": 7717,
      "Ġunco": 7718,
      "ĠGre": 7719,
      "Ġjoked": 7720,
      "Ġfires": 7721,
      "Ġsquaw": 7722,
      "Ġpapa": 7723,
      "boat": 7724,
      "Ġstepping": 7725,
      "Ġhearing": 7726,
      "ĠJennie": 7727,
      "Ġgrows": 7728,
      "meal": 7729,
      "Ġcupcake": 7730,
      "Ġtownspe": 7731,
      "Ġstands": 7732,
      "brina": 7733,
      "Ġnecks": 7734,
      "Ġshops": 7735,
      "Ġalongside": 7736,
      "ails": 7737,
      "balls": 7738,
      "Ġgrandd": 7739,
      "Ġactive": 7740,
      "ĠAlison": 7741,
      "Ġlaying": 7742,
      "Ġnecklaces": 7743,
      "Ġcalmly": 7744,
      "Ġpinching": 7745,
      "Ġprick": 7746,
      "Ġchecking": 7747,
      "Ġhamster": 7748,
      "Ġcovering": 7749,
      "Ġcracker": 7750,
      "Ġcroaked": 7751,
      "Ġtwisting": 7752,
      "Ġcuddly": 7753,
      "Ġgoats": 7754,
      "Ġpreparing": 7755,
      "Ġdiscoveries": 7756,
      "Ġoatmeal": 7757,
      "Ġscattering": 7758,
      "ĠTrust": 7759,
      "Ġscolds": 7760,
      "Ġspeaker": 7761,
      "Ġartwork": 7762,
      "Ġcrystals": 7763,
      "manda": 7764,
      "Ġfreezing": 7765,
      "Ġsewing": 7766,
      "Ġladybird": 7767,
      "Ġobeyed": 7768,
      "Ġencouragement": 7769,
      "Freddy": 7770,
      "ĠBounce": 7771,
      "Ġswayed": 7772,
      "Ġcotton": 7773,
      "Ġannoying": 7774,
      "Great": 7775,
      "Ġthorns": 7776,
      "Ġcommunic": 7777,
      "Ġgerms": 7778,
      "Ġawoke": 7779,
      "Ġnuzzled": 7780,
      "ĠRussel": 7781,
      "Ġmasterpiece": 7782,
      "Ġbouquet": 7783,
      "Ġtheatre": 7784,
      "Ġgonna": 7785,
      "Ġtownspeople": 7786,
      "?!\"": 7787,
      "Feeling": 7788,
      "Kim": 7789,
      "Ma": 7790,
      "Sophia": 7791,
      "Very": 7792,
      "Woof": 7793,
      "dress": 7794,
      "form": 7795,
      "prin": 7796,
      "rily": 7797,
      "rup": 7798,
      "water": 7799,
      "ylves": 7800,
      "ĠOkay": 7801,
      "Ġouch": 7802,
      "Ġtor": 7803,
      "Ġtossed": 7804,
      "Ġbak": 7805,
      "Ġdep": 7806,
      "Ġheight": 7807,
      "ĠTaking": 7808,
      "ĠToto": 7809,
      "iles": 7810,
      "Ġgall": 7811,
      "Ġnood": 7812,
      "Ġnast": 7813,
      "ĠSay": 7814,
      "ĠSince": 7815,
      "ĠSplash": 7816,
      "ĠSasha": 7817,
      "ĠSquirrel": 7818,
      "anish": 7819,
      "lection": 7820,
      "ĠHoot": 7821,
      "ĠHallow": 7822,
      "Ġinj": 7823,
      "Ġbea": 7824,
      "Ġsoaking": 7825,
      "ĠmomÃ¢": 7826,
      "elvet": 7827,
      "Ġforce": 7828,
      "Ġforts": 7829,
      "Ġlies": 7830,
      "ently": 7831,
      "ĠMother": 7832,
      "ĠMine": 7833,
      "ĠMoon": 7834,
      "ĠMarshmallow": 7835,
      "ĠMira": 7836,
      "Ġreun": 7837,
      "rying": 7838,
      "ĠgirlÃ¢": 7839,
      "ĠAng": 7840,
      "ĠAgain": 7841,
      "Ġspat": 7842,
      "Ġspins": 7843,
      "ĠJazz": 7844,
      "asers": 7845,
      "Ġchilly": 7846,
      "Ġtapped": 7847,
      "Ġpeep": 7848,
      "Ġhandy": 7849,
      "Ġstrum": 7850,
      "Ġbubbly": 7851,
      "ortunately": 7852,
      "Ġgardens": 7853,
      "ÅĵWhere": 7854,
      "LetÃ¢": 7855,
      "Ġwrigg": 7856,
      "acle": 7857,
      "Ġfishy": 7858,
      "Ġdisob": 7859,
      "Ġrainy": 7860,
      "ĠRani": 7861,
      "Ġworksh": 7862,
      "Ġbusiness": 7863,
      "Ġsingers": 7864,
      "Ġtasting": 7865,
      "Ġhairdress": 7866,
      "Ġstew": 7867,
      "Ġdripping": 7868,
      "Ġlessons": 7869,
      "Jacky": 7870,
      "Ġmarve": 7871,
      "ĠFlo": 7872,
      "Ġsails": 7873,
      "Ġsailboat": 7874,
      "Ġpetal": 7875,
      "Ġpetting": 7876,
      "ĠGrand": 7877,
      "ixie": 7878,
      "earl": 7879,
      "Ġteachers": 7880,
      "ordinary": 7881,
      "Ġbats": 7882,
      "Ġexpert": 7883,
      "Ġafar": 7884,
      "Ġpresented": 7885,
      "Ġnests": 7886,
      "Ġstreets": 7887,
      "oga": 7888,
      "Ġfootprin": 7889,
      "Ġtroubles": 7890,
      "Ġstirs": 7891,
      "Everything": 7892,
      "Ġstretches": 7893,
      "Ġpicnics": 7894,
      "Ġpleaded": 7895,
      "Ġdisappoint": 7896,
      "Beep": 7897,
      "Ġsqueaked": 7898,
      "Alright": 7899,
      "Ġcrowns": 7900,
      "undred": 7901,
      "Ġstrips": 7902,
      "ĠMargaret": 7903,
      "Ġstreamers": 7904,
      "Ġknocking": 7905,
      "Ġextraordinary": 7906,
      "attered": 7907,
      "Ġkangaroos": 7908,
      "Ġcombed": 7909,
      "Ġmayor": 7910,
      "Ġrepeating": 7911,
      "Ġunpacking": 7912,
      "Ġdisturbing": 7913,
      "Ġstacked": 7914,
      "Ġstomp": 7915,
      "ĠPatrick": 7916,
      "Ġexplains": 7917,
      "Ġpurrs": 7918,
      "Ġstudent": 7919,
      "Ġstudents": 7920,
      "Ġbothered": 7921,
      "ĠIsn": 7922,
      "Ġproper": 7923,
      "Ġfascinating": 7924,
      "ĠAbi": 7925,
      "ĠOlivia": 7926,
      "ĠMeg": 7927,
      "ĠMegan": 7928,
      "ĠSadie": 7929,
      "Ġforgiving": 7930,
      "Ġparticularly": 7931,
      "Ġchoosing": 7932,
      "Ġflashing": 7933,
      "ĠMae": 7934,
      "Sadie": 7935,
      "Ġdamage": 7936,
      "Ġdamaged": 7937,
      "Ġastronauts": 7938,
      "Ġinspired": 7939,
      "Ġsuggestion": 7940,
      "ossom": 7941,
      "Ġnearest": 7942,
      "ĠPuddles": 7943,
      "Ġmunching": 7944,
      "Ġconversation": 7945,
      "Ġunwra": 7946,
      "Ġlocal": 7947,
      "Ġjudges": 7948,
      "ĠBrian": 7949,
      "Ġicicle": 7950,
      "Ġsyrup": 7951,
      "ĠMuffin": 7952,
      "Ġexploration": 7953,
      "Ġthirty": 7954,
      "ĠButtons": 7955,
      "ylvester": 7956,
      "Ġnasty": 7957,
      "ĠHalloween": 7958,
      "Ġworkshop": 7959,
      "Ġhairdresser": 7960,
      ",'": 7961,
      "Boys": 7962,
      "Che": 7963,
      "Jacob": 7964,
      "Mira": 7965,
      "Out": 7966,
      "Put": 7967,
      "Play": 7968,
      "Rosie": 7969,
      "Surpr": 7970,
      "Zoom": 7971,
      "cent": 7972,
      "ears": 7973,
      "jest": 7974,
      "just": 7975,
      "lor": 7976,
      "sm": 7977,
      "vive": 7978,
      "vroom": 7979,
      "Ãĥ": 7980,
      "Ġsou": 7981,
      "Ġsill": 7982,
      "Ġborn": 7983,
      "Ġbitten": 7984,
      "Ġwaking": 7985,
      "Ġmitt": 7986,
      "Ġmate": 7987,
      "ĠTia": 7988,
      "Ġodd": 7989,
      "isions": 7990,
      "ats": 7991,
      "ĠSweet": 7992,
      "aning": 7993,
      "orter": 7994,
      "ĠHar": 7995,
      "ĠHope": 7996,
      "otted": 7997,
      "Ġinches": 7998,
      "ckless": 7999,
      "rier": 8000,
      "ribble": 8001,
      "ĠBoo": 8002,
      "Ġshin": 8003,
      "Ġshorter": 8004,
      "ĠMo": 8005,
      "ĠMabel": 8006,
      "Ġreckless": 8007,
      "rand": 8008,
      "Ġbond": 8009,
      "Ġjars": 8010,
      "Ġexch": 8011,
      "ĠJilly": 8012,
      "ĠJason": 8013,
      "Ġfunn": 8014,
      "Ġclues": 8015,
      "ĠWings": 8016,
      "ĠWise": 8017,
      "agine": 8018,
      "Ġfailed": 8019,
      "Ġchin": 8020,
      "Ġchos": 8021,
      "Ġblown": 8022,
      "usty": 8023,
      "ĠDen": 8024,
      "ĠDory": 8025,
      "ĠDespite": 8026,
      "Ġthanking": 8027,
      "retch": 8028,
      "Ġpeak": 8029,
      "ĠAnnabelle": 8030,
      "ĠJackÃ¢": 8031,
      "ĠJoan": 8032,
      "Ġracer": 8033,
      "ÅĵThe": 8034,
      "ÅĵBut": 8035,
      "ÅĵSee": 8036,
      "Ġstored": 8037,
      "Ġsurprising": 8038,
      "Ġdoorway": 8039,
      "ĠGaby": 8040,
      "Ġjoins": 8041,
      "ĠSpanish": 8042,
      "Ġrains": 8043,
      "Ġforests": 8044,
      "Ġhops": 8045,
      "Ġbrightest": 8046,
      "Ġnights": 8047,
      "Josh": 8048,
      "Ġbits": 8049,
      "ĠDoes": 8050,
      "ĠThatÃ¢": 8051,
      "Ġswimmer": 8052,
      "Ġmovements": 8053,
      "Ġbuilders": 8054,
      "Ġcompan": 8055,
      "Ġvisits": 8056,
      "Ġcreams": 8057,
      "Ġgulp": 8058,
      "Ġchopping": 8059,
      "ĠTodd": 8060,
      "Ġshaped": 8061,
      "Ġpastries": 8062,
      "Ġbattle": 8063,
      "Ġdistract": 8064,
      "Ġpurpose": 8065,
      "Ġpuzzled": 8066,
      "ĠOak": 8067,
      "Ġwildfl": 8068,
      "Ġshrank": 8069,
      "Ġcheerfully": 8070,
      "ĠChuck": 8071,
      "Ġignoring": 8072,
      "Ġtoolbox": 8073,
      "Ġsprays": 8074,
      "Ġself": 8075,
      "Ġdecorating": 8076,
      "Ġsqueaky": 8077,
      "artha": 8078,
      "Ġclassmates": 8079,
      "Meanwhile": 8080,
      "Ġwealth": 8081,
      "keepers": 8082,
      "Ġstamped": 8083,
      "Ġrescuing": 8084,
      "Ġdestroying": 8085,
      "Ġreflection": 8086,
      "Ġpepperoni": 8087,
      "Ġpermitted": 8088,
      "Ġmischie": 8089,
      "Ġtoothbrush": 8090,
      "Ġcurl": 8091,
      "iolet": 8092,
      "Ġlabels": 8093,
      "Ġcells": 8094,
      "Ġvinegar": 8095,
      "Ġtires": 8096,
      "Ġaware": 8097,
      "Ġappreciation": 8098,
      "ĠShar": 8099,
      "Ġcomputers": 8100,
      "Ġluckiest": 8101,
      "Ġmeatballs": 8102,
      "ĠPatch": 8103,
      "Ġpressing": 8104,
      "Ġreversed": 8105,
      "Anne": 8106,
      "Ġsincere": 8107,
      "Quack": 8108,
      "abra": 8109,
      "Ġfloats": 8110,
      "ĠViolet": 8111,
      "Ġsimply": 8112,
      "Ġappearance": 8113,
      "Ġmosquitoes": 8114,
      "ĠMaya": 8115,
      "Ġcaution": 8116,
      "Ġcalf": 8117,
      "Ġflaps": 8118,
      "Ġspilling": 8119,
      "Ġpeeled": 8120,
      "ĠAnother": 8121,
      "Ġpupils": 8122,
      "Ġsilently": 8123,
      "ĠMaia": 8124,
      "ĠTessa": 8125,
      "Ġtucks": 8126,
      "Julie": 8127,
      "Julia": 8128,
      "Which": 8129,
      "Ġsteering": 8130,
      "Ġexpression": 8131,
      "Ġslithered": 8132,
      "Ġexploded": 8133,
      "Ġpanicked": 8134,
      "Suzie": 8135,
      "Ġcawed": 8136,
      "Ġconquered": 8137,
      "Bubbles": 8138,
      "Ġconvinced": 8139,
      "Ġnoodles": 8140,
      "Ġreunited": 8141,
      "Ġpeeped": 8142,
      "Ġchosen": 8143,
      "Ġwildflowers": 8144,
      "Ġmischievous": 8145,
      "'?\"": 8146,
      "Aunt": 8147,
      "Bang": 8148,
      "Curious": 8149,
      "Each": 8150,
      "Ellie": 8151,
      "Get": 8152,
      "Jessie": 8153,
      "Ol": 8154,
      "Riley": 8155,
      "bank": 8156,
      "care": 8157,
      "cie": 8158,
      "crow": 8159,
      "line": 8160,
      "mie": 8161,
      "munk": 8162,
      "oard": 8163,
      "please": 8164,
      "rum": 8165,
      "rupt": 8166,
      "vant": 8167,
      "vince": 8168,
      "what": 8169,
      "ÃĤ": 8170,
      "ĠYum": 8171,
      "Ġtant": 8172,
      "Ġais": 8173,
      "Ġwrench": 8174,
      "Ġtoss": 8175,
      "Ġbamb": 8176,
      "innie": 8177,
      "Ġhood": 8178,
      "Ġhundred": 8179,
      "Ġfare": 8180,
      "ouched": 8181,
      "Ġcages": 8182,
      "Ġcongratul": 8183,
      "erg": 8184,
      "ĠTw": 8185,
      "ĠTara": 8186,
      "aylee": 8187,
      "arrow": 8188,
      "atitude": 8189,
      "Ġnapping": 8190,
      "Ġhab": 8191,
      "ĠSid": 8192,
      "Ġthump": 8193,
      "lets": 8194,
      "ĠHood": 8195,
      "otch": 8196,
      "ĠHello": 8197,
      "Ġele": 8198,
      "ooly": 8199,
      "oops": 8200,
      "Ġroo": 8201,
      "ĠIzzy": 8202,
      "str": 8203,
      "ĠBad": 8204,
      "ĠBoom": 8205,
      "ĠBonnie": 8206,
      "Ġforty": 8207,
      "Ġdolly": 8208,
      "Ġwhipped": 8209,
      "Ġwhales": 8210,
      "Ġwhoosh": 8211,
      "Ġreapp": 8212,
      "ĠAunt": 8213,
      "Ġsped": 8214,
      "ichell": 8215,
      "Ġknots": 8216,
      "ument": 8217,
      "Ġbacks": 8218,
      "Ġclucked": 8219,
      "Ġroamed": 8220,
      "getic": 8221,
      "ĠWelcome": 8222,
      "Ġbirdhouse": 8223,
      "Ġsometime": 8224,
      "Ġgoodby": 8225,
      "Ġflip": 8226,
      "ĠLi": 8227,
      "ĠLaser": 8228,
      "ĠLooking": 8229,
      "ĠEric": 8230,
      "Ġbecomes": 8231,
      "ĠDe": 8232,
      "ista": 8233,
      "Ġaboard": 8234,
      "anted": 8235,
      "Ġhollow": 8236,
      "Ġtraded": 8237,
      "Ġtrotted": 8238,
      "Ġmoat": 8239,
      "Ġlongest": 8240,
      "izmo": 8241,
      "ilda": 8242,
      "Ġflowing": 8243,
      "Yesterday": 8244,
      "ĠCow": 8245,
      "ĠCra": 8246,
      "empt": 8247,
      "Ġdonkey": 8248,
      "Ġgratitude": 8249,
      "Ġcheated": 8250,
      "Ġgliding": 8251,
      "Ġracers": 8252,
      "ÅĵYay": 8253,
      "Whenever": 8254,
      "Ġfinishes": 8255,
      "ĠPan": 8256,
      "ĠPink": 8257,
      "ĠPretty": 8258,
      "ĠPixie": 8259,
      "ĠPearl": 8260,
      "Ġwinding": 8261,
      "Ġconvince": 8262,
      "sol": 8263,
      "Ġmajest": 8264,
      "ĠSpeed": 8265,
      "ĠNice": 8266,
      "Ġdev": 8267,
      "Ġdears": 8268,
      "Ġsurely": 8269,
      "Ġfloppy": 8270,
      "Ġdrown": 8271,
      "Ġsandy": 8272,
      "Ġcraft": 8273,
      "Ġsquished": 8274,
      "Ġparted": 8275,
      "shadow": 8276,
      "boards": 8277,
      "Ġsets": 8278,
      "Ġshoel": 8279,
      "Ġmovement": 8280,
      "ĠKaty": 8281,
      "Ġtighter": 8282,
      "queak": 8283,
      "Ġjoyfully": 8284,
      "uggles": 8285,
      "Ġattempt": 8286,
      "Ġsprout": 8287,
      "Ġcollap": 8288,
      "Ġpackages": 8289,
      "asketball": 8290,
      "Ġdrying": 8291,
      "Dog": 8292,
      "Ġbelongings": 8293,
      "Ġbathing": 8294,
      "ĠOuch": 8295,
      "Ġtunes": 8296,
      "Ġsurvive": 8297,
      "Ġreturning": 8298,
      "Ġstorms": 8299,
      "Ġzookeepers": 8300,
      "ertain": 8301,
      "izza": 8302,
      "Ġprotection": 8303,
      "ĠChick": 8304,
      "ĠAlan": 8305,
      "Everyday": 8306,
      "Ġsalon": 8307,
      "Ġtests": 8308,
      "Ġpriest": 8309,
      "Ġqueens": 8310,
      "Ġscrub": 8311,
      "Ġmeadows": 8312,
      "Ġsqueak": 8313,
      "Ġhonesty": 8314,
      "Ġwiser": 8315,
      "Ġwisely": 8316,
      "illiam": 8317,
      "Ġcheckout": 8318,
      "Ġrats": 8319,
      "Ġcops": 8320,
      "Ġfrowns": 8321,
      "Ġfishes": 8322,
      "Ġapologised": 8323,
      "Ġperformers": 8324,
      "Ġcuddling": 8325,
      "ĠSnuggles": 8326,
      "Ġscratching": 8327,
      "Ġcheaper": 8328,
      "Ġbeetles": 8329,
      "Ġsweat": 8330,
      "Ġsweaty": 8331,
      "Ġdesigns": 8332,
      "ĠPeanut": 8333,
      "Ġenviron": 8334,
      "Ġloading": 8335,
      "Ġspeeding": 8336,
      "Ġmillion": 8337,
      "Ġsupported": 8338,
      "Ġawful": 8339,
      "Ġapplause": 8340,
      "Ġhumans": 8341,
      "ĠSeeing": 8342,
      "Ġpoems": 8343,
      "Chirp": 8344,
      "Ġtubes": 8345,
      "Ġweighs": 8346,
      "Ġscooters": 8347,
      "Ġwiggly": 8348,
      "Ġbothering": 8349,
      "Ġmelody": 8350,
      "Ġlipstick": 8351,
      "ĠCatty": 8352,
      "Ġincreasing": 8353,
      "Robbie": 8354,
      "Ġscurrying": 8355,
      "Ġcontainer": 8356,
      "ĠChris": 8357,
      "ĠCarol": 8358,
      "Ġactivity": 8359,
      "Mikey": 8360,
      "ĠMatty": 8361,
      "Ġopinions": 8362,
      "Ġchooses": 8363,
      "Ġfocus": 8364,
      "asmine": 8365,
      "ĠPoor": 8366,
      "Ġtemptation": 8367,
      "Ġglittering": 8368,
      "Ġembarrassing": 8369,
      "ĠSmokey": 8370,
      "Ġcustomer": 8371,
      "Ġcustomers": 8372,
      "Ġoppos": 8373,
      "annon": 8374,
      "Ġchipmunk": 8375,
      "Ġcharacters": 8376,
      "Ġcowboy": 8377,
      "Ġjuggling": 8378,
      "Ġmanager": 8379,
      "Ġsnorted": 8380,
      "Ġnibbled": 8381,
      "ĠSabrina": 8382,
      "Ġfaint": 8383,
      "Ġgranddaughter": 8384,
      "Ġprickly": 8385,
      "Ġcommunicate": 8386,
      "Ġbakery": 8387,
      "Ġshinier": 8388,
      "Ġcompanion": 8389,
      "Ġtantrum": 8390,
      "Ġbamboo": 8391,
      "Ġfarewell": 8392,
      "ichelle": 8393,
      "Ġgoodbyes": 8394,
      "Ġenvironment": 8395,
      "!'.": 8396,
      "David": 8397,
      "Fro": 8398,
      "Hoppy": 8399,
      "Jon": 8400,
      "June": 8401,
      "Laura": 8402,
      "Mon": 8403,
      "Mabel": 8404,
      "Nice": 8405,
      "Never": 8406,
      "Nutty": 8407,
      "Pretty": 8408,
      "Que": 8409,
      "Red": 8410,
      "Ted": 8411,
      "Two": 8412,
      "Zoe": 8413,
      "bell": 8414,
      "book": 8415,
      "che": 8416,
      "evin": 8417,
      "fly": 8418,
      "five": 8419,
      "gre": 8420,
      "lt": 8421,
      "lied": 8422,
      "mark": 8423,
      "py": 8424,
      "ulp": 8425,
      "val": 8426,
      "Â¦": 8427,
      "ĠOh": 8428,
      "Ġtips": 8429,
      "Ġarom": 8430,
      "Ġsipped": 8431,
      "Ġwoof": 8432,
      "ino": 8433,
      "Ġfade": 8434,
      "ouie": 8435,
      "Ġlim": 8436,
      "Ġlasers": 8437,
      "Ġdip": 8438,
      "erk": 8439,
      "Ġmur": 8440,
      "ĠTy": 8441,
      "arles": 8442,
      "inging": 8443,
      "Ġgap": 8444,
      "ening": 8445,
      "Ġnatur": 8446,
      "Ġsacks": 8447,
      "Ġhaven": 8448,
      "ĠSylvester": 8449,
      "anes": 8450,
      "ances": 8451,
      "orking": 8452,
      "onut": 8453,
      "llas": 8454,
      "ĠHi": 8455,
      "ĠHoney": 8456,
      "ĠHugs": 8457,
      "Ġyum": 8458,
      "aming": 8459,
      "Ġruff": 8460,
      "Ġrays": 8461,
      "Ġstate": 8462,
      "Ġsheets": 8463,
      "ĠBasketball": 8464,
      "elope": 8465,
      "Ġshines": 8466,
      "Ġnoticing": 8467,
      "Ġkilled": 8468,
      "Ġwhimp": 8469,
      "ĠMaisy": 8470,
      "Ġsmashed": 8471,
      "Ġrely": 8472,
      "race": 8473,
      "ecul": 8474,
      "ĠAnny": 8475,
      "ĠAna": 8476,
      "ĠAmanda": 8477,
      "ĠJam": 8478,
      "ĠJelly": 8479,
      "ighting": 8480,
      "Ġclerk": 8481,
      "Ġsculp": 8482,
      "Ġalthough": 8483,
      "ashes": 8484,
      "asured": 8485,
      "âĤ¬,": 8486,
      "âĤ¬Â¦": 8487,
      "Ġotherwise": 8488,
      "ooks": 8489,
      "ĠLots": 8490,
      "Ġchill": 8491,
      "Ġdecisions": 8492,
      "ĠEver": 8493,
      "ĠEddie": 8494,
      "ĠMomo": 8495,
      "Ġtapping": 8496,
      "oured": 8497,
      "ĠFair": 8498,
      "Ġgrain": 8499,
      "ession": 8500,
      "Ġkeen": 8501,
      "Ġpeels": 8502,
      "ively": 8503,
      "Ġtrans": 8504,
      "Ġskies": 8505,
      "Ġwatermel": 8506,
      "Ġwaterfall": 8507,
      "ĠJackie": 8508,
      "Thomas": 8509,
      "Ġgardener": 8510,
      "Ġglared": 8511,
      "Ġglisten": 8512,
      "Ġglimmering": 8513,
      "Ġdollar": 8514,
      "Ġcleans": 8515,
      "Ġrocky": 8516,
      "ĠPain": 8517,
      "Ġforeshadow": 8518,
      "tures": 8519,
      "Ġwrit": 8520,
      "ĠGoose": 8521,
      "ĠSpring": 8522,
      "ĠNancy": 8523,
      "Ġstores": 8524,
      "Ġleaking": 8525,
      "Ġgladly": 8526,
      "Ġcrouched": 8527,
      "Ġtricycle": 8528,
      "ship": 8529,
      "Ġduckling": 8530,
      "Ġbowing": 8531,
      "Ġsnowy": 8532,
      "Ġhunger": 8533,
      "ĠKathy": 8534,
      "zzz": 8535,
      "Ġguide": 8536,
      "angle": 8537,
      "Ġprod": 8538,
      "Ġsprang": 8539,
      "ounce": 8540,
      "Ġinstantly": 8541,
      "ordan": 8542,
      "Ġpresence": 8543,
      "ĠRebec": 8544,
      "Ġsupplied": 8545,
      "ĠAlicia": 8546,
      "Ġcooed": 8547,
      "Ġanswering": 8548,
      "Ġminds": 8549,
      "ÅĵIf": 8550,
      "Ġgasps": 8551,
      "ĠBehind": 8552,
      "ĠOnly": 8553,
      "ĠLeah": 8554,
      "Ġtickling": 8555,
      "Ġpays": 8556,
      "Ġtentacles": 8557,
      "Ġorders": 8558,
      "Ġscares": 8559,
      "Jenna": 8560,
      "Ġtwists": 8561,
      "Ġfreely": 8562,
      "Ġlowered": 8563,
      "Ġposts": 8564,
      "Ġguarding": 8565,
      "ĠClown": 8566,
      "Ġwindowsill": 8567,
      "Ġbracelets": 8568,
      "ĠPeep": 8569,
      "Ġheroes": 8570,
      "Ġengines": 8571,
      "Ġquestioned": 8572,
      "Ġimproving": 8573,
      "Ġumbrellas": 8574,
      "ĠDavey": 8575,
      "udged": 8576,
      "Ġrepairman": 8577,
      "Ġenergetic": 8578,
      "Ġvolcanoes": 8579,
      "Ġkayaking": 8580,
      "Ġslipping": 8581,
      "Ġcomets": 8582,
      "Ġburnt": 8583,
      "Ġfleas": 8584,
      "Ġclubs": 8585,
      "Ġtriangles": 8586,
      "Ġshovels": 8587,
      "Ġvehicles": 8588,
      "ĠWhoever": 8589,
      "ĠVelvet": 8590,
      "Ġtongues": 8591,
      "Ġpedaling": 8592,
      "Ġrows": 8593,
      "Ġsuitcases": 8594,
      "Ġbrushing": 8595,
      "Ġdaily": 8596,
      "ĠCarla": 8597,
      "Ġwinks": 8598,
      "iko": 8599,
      "Ġscrubbing": 8600,
      "Ġheavily": 8601,
      "Ġexpecting": 8602,
      "Ġswaying": 8603,
      "Ġtypes": 8604,
      "Ġrobbers": 8605,
      "Ġhealthier": 8606,
      "Someone": 8607,
      "Ġpopsicle": 8608,
      "Ġcoconut": 8609,
      "Abigail": 8610,
      "Ġdetails": 8611,
      "Ġdodged": 8612,
      "Ġpounds": 8613,
      "ĠJeff": 8614,
      "Ġnibble": 8615,
      "ĠCleaning": 8616,
      "ĠDotty": 8617,
      "Ġconflict": 8618,
      "Ġsoothing": 8619,
      "Surprise": 8620,
      "Ġmatey": 8621,
      "Ġcongratulated": 8622,
      "Ġopposite": 8623,
      "Queen": 8624,
      "Ġaroma": 8625,
      "Ġnatural": 8626,
      "Ġwatermelon": 8627,
      "Ġglistening": 8628,
      "ĠRebecca": 8629,
      "AA": 8630,
      "Aw": 8631,
      "Hmm": 8632,
      "Joy": 8633,
      "Kids": 8634,
      "Lucky": 8635,
      "Luke": 8636,
      "Mother": 8637,
      "Open": 8638,
      "Penny": 8639,
      "Silly": 8640,
      "Willie": 8641,
      "cad": 8642,
      "for": 8643,
      "haps": 8644,
      "ieter": 8645,
      "ka": 8646,
      "oor": 8647,
      "off": 8648,
      "rite": 8649,
      "rough": 8650,
      "rons": 8651,
      "site": 8652,
      "tock": 8653,
      "why": 8654,
      "Ġtugging": 8655,
      "Ġsigning": 8656,
      "nded": 8657,
      "Ġbaker": 8658,
      "rect": 8659,
      "Ġlump": 8660,
      "Ġdumb": 8661,
      "Ġdips": 8662,
      "Ġmaker": 8663,
      "Ġpecul": 8664,
      "Ġwashes": 8665,
      "ĠTree": 8666,
      "ĠTiki": 8667,
      "ĠTabby": 8668,
      "ilities": 8669,
      "Ġgaz": 8670,
      "Ġgrip": 8671,
      "enzie": 8672,
      "ĠSl": 8673,
      "immered": 8674,
      "ĠHold": 8675,
      "otor": 8676,
      "cker": 8677,
      "Ġyel": 8678,
      "Ġyelp": 8679,
      "ooo": 8680,
      "igger": 8681,
      "Ġriddle": 8682,
      "Ġbegs": 8683,
      "Ġstur": 8684,
      "ppa": 8685,
      "adia": 8686,
      "ĠweÃ¢": 8687,
      "stantly": 8688,
      "ĠBang": 8689,
      "elie": 8690,
      "enter": 8691,
      "Ġnecess": 8692,
      "alia": 8693,
      "ĠMag": 8694,
      "ĠMinnie": 8695,
      "Ġrewards": 8696,
      "Ġashes": 8697,
      "ackenzie": 8698,
      "Ġspare": 8699,
      "Ġknives": 8700,
      "Ġallerg": 8701,
      "Ġroast": 8702,
      "ĠWorm": 8703,
      "Ġtreasured": 8704,
      "Ġfawn": 8705,
      "Ġfacing": 8706,
      "ĠwhatÃ¢": 8707,
      "Ġcode": 8708,
      "ĠLacy": 8709,
      "Ġblushed": 8710,
      "ĠElle": 8711,
      "ĠDeal": 8712,
      "ĠFake": 8713,
      "ĠFind": 8714,
      "Ġpokes": 8715,
      "Ġpopping": 8716,
      "Ġlookout": 8717,
      "aptain": 8718,
      "Ġpeas": 8719,
      "Ġpecks": 8720,
      "Ġtrigger": 8721,
      "Ġbud": 8722,
      "Ġbund": 8723,
      "Ġbubbling": 8724,
      "othy": 8725,
      "Ġquieter": 8726,
      "Ġoffic": 8727,
      "ortun": 8728,
      "ĠJose": 8729,
      "ĠJody": 8730,
      "ĠJoJo": 8731,
      "ĠJosie": 8732,
      "Ġchecks": 8733,
      "Ġbrains": 8734,
      "Ġunderwater": 8735,
      "Ġwoken": 8736,
      "ÅĵMaybe": 8737,
      "ÅĵGood": 8738,
      "astated": 8739,
      "Ġshares": 8740,
      "Ġdoorbell": 8741,
      "Ġcons": 8742,
      "Ġconcent": 8743,
      "Ġunfortunately": 8744,
      "ĠGizmo": 8745,
      "Ġclosing": 8746,
      "ĠRight": 8747,
      "ĠRock": 8748,
      "ĠRich": 8749,
      "ĠRory": 8750,
      "ĠRibbit": 8751,
      "ĠRiko": 8752,
      "Ġamused": 8753,
      "Ġarmy": 8754,
      "Ġdifferently": 8755,
      "ĠDove": 8756,
      "Ġcracks": 8757,
      "Ġcris": 8758,
      "Ġcooled": 8759,
      "Ġbaa": 8760,
      "Ġwoodpe": 8761,
      "Ġducklings": 8762,
      "ulf": 8763,
      "Ġcupboards": 8764,
      "Ġlanding": 8765,
      "Ġproved": 8766,
      "Ġriverbank": 8767,
      "Ġlunchtime": 8768,
      "Ġcafe": 8769,
      "Ġbounces": 8770,
      "Ġimaginary": 8771,
      "Ġgrandson": 8772,
      "ĠOff": 8773,
      "Ġpractised": 8774,
      "Ġcorrect": 8775,
      "ĠReady": 8776,
      "Ġaprons": 8777,
      "Ġserving": 8778,
      "Ġtrusts": 8779,
      "Ġcooperate": 8780,
      "Ġnets": 8781,
      "Ġships": 8782,
      "Ġgroups": 8783,
      "Ġwhisk": 8784,
      "Ġbreaths": 8785,
      "Ġdecoration": 8786,
      "flower": 8787,
      "ĠStella": 8788,
      "ĠStretch": 8789,
      "Ġgenerosity": 8790,
      "Ġincredibly": 8791,
      "Ġmiracle": 8792,
      "Ġpiled": 8793,
      "Ġrelaxing": 8794,
      "Ġmagnif": 8795,
      "Ġharmony": 8796,
      "Ġterrified": 8797,
      "Ġelders": 8798,
      "Ġsqueezes": 8799,
      "Ġleans": 8800,
      "Ġstriking": 8801,
      "ĠMarie": 8802,
      "Ġseriously": 8803,
      "Ġcharged": 8804,
      "Ġstatues": 8805,
      "Ġsneaking": 8806,
      "Ġvibr": 8807,
      "Ġargument": 8808,
      "Ġmember": 8809,
      "Ġsurfer": 8810,
      "Ġcrows": 8811,
      "Ġshorts": 8812,
      "teen": 8813,
      "ĠRollie": 8814,
      "Ġexperiment": 8815,
      "Ġburger": 8816,
      "Ġreversing": 8817,
      "Ġpurring": 8818,
      "ĠisnÃ¢": 8819,
      "Ġbarrels": 8820,
      "Ġoffering": 8821,
      "Ġmagazines": 8822,
      "ĠCozy": 8823,
      "ĠIsland": 8824,
      "ĠIsabel": 8825,
      "Ġlectures": 8826,
      "Ġnightmares": 8827,
      "ĠPiper": 8828,
      "Years": 8829,
      "Ġseagulls": 8830,
      "Ġfetched": 8831,
      "Ġannounced": 8832,
      "ÅĵWeÃ¢": 8833,
      "Ġallowing": 8834,
      "Ġclicked": 8835,
      "Ġrevealing": 8836,
      ".''": 8837,
      "Ġwounds": 8838,
      "Ġcousins": 8839,
      "ĠHappyland": 8840,
      "Ġflashes": 8841,
      "Ġhonks": 8842,
      "Ġcommon": 8843,
      "ĠJonas": 8844,
      "Ġtempted": 8845,
      "Ġbehaviour": 8846,
      "Ġleapt": 8847,
      "ĠSparky": 8848,
      "Ġopportun": 8849,
      "lectric": 8850,
      "Ġcocoon": 8851,
      "ĠExcited": 8852,
      "Ġpositive": 8853,
      "Ġ20": 8854,
      "Ġbruises": 8855,
      "Ġrinsed": 8856,
      "ĠAshlee": 8857,
      "Ġcoughed": 8858,
      "Ġglittered": 8859,
      "ĠPlaying": 8860,
      "Ġdefeat": 8861,
      "Ġinterrupt": 8862,
      "Ġroutine": 8863,
      "Ġblonde": 8864,
      "ĠGregg": 8865,
      "Ġtorto": 8866,
      "Ġgallop": 8867,
      "Ġdisappointment": 8868,
      "loria": 8869,
      "Ġaisle": 8870,
      "Ġrooster": 8871,
      "Ġmajestic": 8872,
      "Ġdevastated": 8873,
      "Ġcollapsed": 8874,
      "Ġwriter": 8875,
      "cadabra": 8876,
      "Ġpeculiar": 8877,
      "Ġsturdy": 8878,
      "Ġconcentr": 8879,
      "Ġwoodpecker": 8880,
      "',": 8881,
      "Achoo": 8882,
      "Arrr": 8883,
      "Cat": 8884,
      "Deal": 8885,
      "Ginger": 8886,
      "Hold": 8887,
      "Im": 8888,
      "Lizzy": 8889,
      "Mine": 8890,
      "Nick": 8891,
      "Paula": 8892,
      "Sl": 8893,
      "Sn": 8894,
      "Sunny": 8895,
      "Vroom": 8896,
      "Zee": 8897,
      "aly": 8898,
      "aved": 8899,
      "bly": 8900,
      "cou": 8901,
      "cup": 8902,
      "ders": 8903,
      "fia": 8904,
      "gae": 8905,
      "look": 8906,
      "ok": 8907,
      "opped": 8908,
      "riting": 8909,
      "sa": 8910,
      "saw": 8911,
      "tles": 8912,
      "taker": 8913,
      "vate": 8914,
      "yla": 8915,
      "ĠOf": 8916,
      "Ġicky": 8917,
      "ĠQueen": 8918,
      "hew": 8919,
      "Ġtill": 8920,
      "Ġtumm": 8921,
      "Ġactor": 8922,
      "Ġsom": 8923,
      "Ġtopp": 8924,
      "Ġbom": 8925,
      "Ġburp": 8926,
      "Ġbuddy": 8927,
      "inter": 8928,
      "Ġwaded": 8929,
      "Ġfulf": 8930,
      "Ġlur": 8931,
      "Ġlens": 8932,
      "Ġcuc": 8933,
      "Ġcertain": 8934,
      "ering": 8935,
      "Ġpuck": 8936,
      "ĠTime": 8937,
      "ili": 8938,
      "ĠSk": 8939,
      "ĠSatur": 8940,
      "onished": 8941,
      "lest": 8942,
      "ĠHank": 8943,
      "etch": 8944,
      "ĠHelen": 8945,
      "owing": 8946,
      "utely": 8947,
      "Ġelectric": 8948,
      "igaret": 8949,
      "Ġrack": 8950,
      "Ġrumbling": 8951,
      "cel": 8952,
      "cell": 8953,
      "Ġplow": 8954,
      "Ġplopped": 8955,
      "Ġhisses": 8956,
      "ĠBust": 8957,
      "ĠBigg": 8958,
      "eliness": 8959,
      "herry": 8960,
      "Ġshattered": 8961,
      "ended": 8962,
      "seed": 8963,
      "Ġkittens": 8964,
      "Ġwhizz": 8965,
      "ĠMuffy": 8966,
      "ĠMartha": 8967,
      "Ġrejo": 8968,
      "ragon": 8969,
      "Ġgogg": 8970,
      "Ġatop": 8971,
      "urball": 8972,
      "ĠAc": 8973,
      "Ġspies": 8974,
      "Ġspades": 8975,
      "artment": 8976,
      "ico": 8977,
      "hings": 8978,
      "arefully": 8979,
      "Ġclut": 8980,
      "ĠTomorrow": 8981,
      "Ġlever": 8982,
      "ĠWhee": 8983,
      "ĠWooly": 8984,
      "Ġbirdseed": 8985,
      "ongo": 8986,
      "Ġfail": 8987,
      "ownie": 8988,
      "Ġparking": 8989,
      "ellow": 8990,
      "Ġfluff": 8991,
      "ĠLime": 8992,
      "ĠLena": 8993,
      "ĠEating": 8994,
      "Ġcaretaker": 8995,
      "ĠDash": 8996,
      "Ġability": 8997,
      "ĠFribble": 8998,
      "ĠFighting": 8999,
      "ersaul": 9000,
      "ĠMaxi": 9001,
      "Ġoldest": 9002,
      "Ġtrading": 9003,
      "umpkin": 9004,
      "Ġench": 9005,
      "Ġoverhead": 9006,
      "Ġoverwhe": 9007,
      "ĠCars": 9008,
      "ĠCount": 9009,
      "Three": 9010,
      "ÅĵPlease": 9011,
      "ÅĵWho": 9012,
      "ÅĵHow": 9013,
      "ÅĵMummy": 9014,
      "ÅĵThanks": 9015,
      "ĠPromise": 9016,
      "ĠPizza": 9017,
      "ĠPico": 9018,
      "ĠPumpkin": 9019,
      "Ġunz": 9020,
      "Ġunison": 9021,
      "ĠGirl": 9022,
      "ĠGinger": 9023,
      "Ġlistener": 9024,
      "Ġdiscou": 9025,
      "ĠSpud": 9026,
      "ĠRavi": 9027,
      "ĠRusty": 9028,
      "ĠNat": 9029,
      "ĠNever": 9030,
      "ĠNathan": 9031,
      "Ġmonth": 9032,
      "Ġbuyer": 9033,
      "ĠAfterwards": 9034,
      "ĠKaylee": 9035,
      "ĠKevin": 9036,
      "avin": 9037,
      "ĠWhatÃ¢": 9038,
      "Ġcompete": 9039,
      "Ġpolar": 9040,
      "Ġguards": 9041,
      "Ġguided": 9042,
      "iety": 9043,
      "Ġattitude": 9044,
      "ippers": 9045,
      "Ġbuckled": 9046,
      "Ġloneliness": 9047,
      "Ġmini": 9048,
      "Does": 9049,
      "hole": 9050,
      "Ġdesperate": 9051,
      "Ġpreschool": 9052,
      "Ġbattles": 9053,
      "Ġinvol": 9054,
      "Ġwrapper": 9055,
      "Ġgiggles": 9056,
      "ogo": 9057,
      "Ġzooms": 9058,
      "Ġcorals": 9059,
      "Instead": 9060,
      "Stay": 9061,
      "Ġshyly": 9062,
      "Ġcoolest": 9063,
      "Ġtesting": 9064,
      "Ġreminds": 9065,
      "Ġmoonlight": 9066,
      "Ġbellies": 9067,
      "Ġburns": 9068,
      "Ġhumming": 9069,
      "iana": 9070,
      "Ġcapes": 9071,
      "ĠStand": 9072,
      "Todd": 9073,
      "Ġmicrow": 9074,
      "Ġjogs": 9075,
      "Ġescaping": 9076,
      "Ġerases": 9077,
      "ĠBloom": 9078,
      "Ġhunters": 9079,
      "Along": 9080,
      "Ġpanting": 9081,
      "Ġsneezes": 9082,
      "Ġtanks": 9083,
      "Ġcherished": 9084,
      "Ġapology": 9085,
      "Ġcroak": 9086,
      "Ġzips": 9087,
      "ĠClar": 9088,
      "ĠClare": 9089,
      "ĠClumsy": 9090,
      "Ġcarpenter": 9091,
      "ĠWhich": 9092,
      "Ġotters": 9093,
      "Ġcrocodiles": 9094,
      "Ġtrunks": 9095,
      "Ġpigeons": 9096,
      "Ġtoaster": 9097,
      "Ġpedall": 9098,
      "Ġmiller": 9099,
      "ĠTrista": 9100,
      "Ġhooks": 9101,
      "Ġpads": 9102,
      "Ġironing": 9103,
      "ĠShare": 9104,
      "ĠShannon": 9105,
      "Ġbulbs": 9106,
      "Ġhaircuts": 9107,
      "Ġproviding": 9108,
      "Ġthreads": 9109,
      "Ġsupplying": 9110,
      "Ġsleigh": 9111,
      "Ġstrokes": 9112,
      "Ġapproach": 9113,
      "Isn": 9114,
      "Ġpitched": 9115,
      "Ġsprinkle": 9116,
      "Shoo": 9117,
      "Ġchalks": 9118,
      "Ġtraveling": 9119,
      "Ġdifferences": 9120,
      "Ġresponsib": 9121,
      "Ġresponsibly": 9122,
      "ĠDanie": 9123,
      "Ġchatted": 9124,
      "Ġchallenged": 9125,
      "Rover": 9126,
      "Ġcubs": 9127,
      "Leave": 9128,
      "Ġfashionable": 9129,
      "ĠGreenie": 9130,
      "Ġflashed": 9131,
      "Ġcentre": 9132,
      "Ġsirens": 9133,
      "ĠYellow": 9134,
      "Ġwrecked": 9135,
      "ĠJonny": 9136,
      "Ġhooves": 9137,
      "Ġstrolled": 9138,
[...]
